{
  "version": "1.0",
  "truncation": null,
  "padding": null,
  "added_tokens": [
    {
      "id": 0,
      "content": "<pad>",
      "single_word": false,
      "lstrip": false,
      "rstrip": false,
      "normalized": false,
      "special": true
    },
    {
      "id": 1,
      "content": "<unk>",
      "single_word": false,
      "lstrip": false,
      "rstrip": false,
      "normalized": false,
      "special": true
    },
    {
      "id": 2,
      "content": "<bos>",
      "single_word": false,
      "lstrip": false,
      "rstrip": false,
      "normalized": false,
      "special": true
    },
    {
      "id": 3,
      "content": "<eos>",
      "single_word": false,
      "lstrip": false,
      "rstrip": false,
      "normalized": false,
      "special": true
    }
  ],
  "normalizer": {
    "type": "NFKC"
  },
  "pre_tokenizer": {
    "type": "ByteLevel",
    "add_prefix_space": true,
    "trim_offsets": true,
    "use_regex": true
  },
  "post_processor": {
    "type": "ByteLevel",
    "add_prefix_space": true,
    "trim_offsets": true,
    "use_regex": true
  },
  "decoder": null,
  "model": {
    "type": "BPE",
    "dropout": null,
    "unk_token": null,
    "continuing_subword_prefix": null,
    "end_of_word_suffix": null,
    "fuse_unk": false,
    "byte_fallback": false,
    "ignore_merges": false,
    "vocab": {
      "<pad>": 0,
      "<unk>": 1,
      "<bos>": 2,
      "<eos>": 3,
      "!": 4,
      "\"": 5,
      "#": 6,
      "$": 7,
      "%": 8,
      "&": 9,
      "'": 10,
      "(": 11,
      ")": 12,
      "*": 13,
      "+": 14,
      ",": 15,
      "-": 16,
      ".": 17,
      "/": 18,
      "0": 19,
      "1": 20,
      "2": 21,
      "3": 22,
      "4": 23,
      "5": 24,
      "6": 25,
      "7": 26,
      "8": 27,
      "9": 28,
      ":": 29,
      ";": 30,
      "=": 31,
      "?": 32,
      "@": 33,
      "A": 34,
      "B": 35,
      "C": 36,
      "D": 37,
      "E": 38,
      "F": 39,
      "G": 40,
      "H": 41,
      "I": 42,
      "J": 43,
      "K": 44,
      "L": 45,
      "M": 46,
      "N": 47,
      "O": 48,
      "P": 49,
      "Q": 50,
      "R": 51,
      "S": 52,
      "T": 53,
      "U": 54,
      "V": 55,
      "W": 56,
      "X": 57,
      "Y": 58,
      "Z": 59,
      "\\": 60,
      "_": 61,
      "a": 62,
      "b": 63,
      "c": 64,
      "d": 65,
      "e": 66,
      "f": 67,
      "g": 68,
      "h": 69,
      "i": 70,
      "j": 71,
      "k": 72,
      "l": 73,
      "m": 74,
      "n": 75,
      "o": 76,
      "p": 77,
      "q": 78,
      "r": 79,
      "s": 80,
      "t": 81,
      "u": 82,
      "v": 83,
      "w": 84,
      "x": 85,
      "y": 86,
      "z": 87,
      "~": 88,
      "£": 89,
      "¥": 90,
      "°": 91,
      "²": 92,
      "Â": 93,
      "â": 94,
      "ã": 95,
      "Ċ": 96,
      "Ġ": 97,
      "ġ": 98,
      "Ģ": 99,
      "ģ": 100,
      "Ĥ": 101,
      "ĵ": 102,
      "Ķ": 103,
      "ĺ": 104,
      "Ļ": 105,
      "ľ": 106,
      "Ŀ": 107,
      "Ġt": 108,
      "Ġ.": 109,
      "Ġa": 110,
      "ou": 111,
      "he": 112,
      "in": 113,
      "Ġs": 114,
      "re": 115,
      "ĠI": 116,
      "Ġw": 117,
      "ha": 118,
      "Ġy": 119,
      "Ġ,": 120,
      "Ġyou": 121,
      "Ġm": 122,
      "Ġthe": 123,
      "on": 124,
      "Ġc": 125,
      "er": 126,
      "Ġto": 127,
      "Ġb": 128,
      "Ġ?": 129,
      "ll": 130,
      "it": 131,
      "or": 132,
      "Ġf": 133,
      "Ġd": 134,
      "ing": 135,
      "is": 136,
      "an": 137,
      "Ġp": 138,
      "es": 139,
      "Ġl": 140,
      "hat": 141,
      "ve": 142,
      "Ġg": 143,
      "nd": 144,
      "Ġo": 145,
      "Ġn": 146,
      "om": 147,
      "ĠW": 148,
      "en": 149,
      "ow": 150,
      "Ġha": 151,
      "ea": 152,
      "et": 153,
      "ĠT": 154,
      "Ġin": 155,
      "ed": 156,
      "ay": 157,
      "Ġit": 158,
      "st": 159,
      "at": 160,
      "Ġth": 161,
      "Ġof": 162,
      "Ġis": 163,
      "ar": 164,
      "Ġand": 165,
      "ke": 166,
      "âĢ": 167,
      "ĠâĢ": 168,
      "ot": 169,
      "ĠY": 170,
      "ic": 171,
      "ĠâĢĻ": 172,
      "se": 173,
      "Ġfor": 174,
      "Ġbe": 175,
      "'s": 176,
      "ld": 177,
      "le": 178,
      "Ġre": 179,
      "oo": 180,
      "Ġon": 181,
      "Ġhave": 182,
      "ĠH": 183,
      "Ġdo": 184,
      "Ġh": 185,
      "ut": 186,
      "Ġhe": 187,
      "Ġthat": 188,
      "gh": 189,
      "Ġwe": 190,
      "Ġme": 191,
      "ver": 192,
      "id": 193,
      "Ġe": 194,
      "ould": 195,
      "ĠA": 196,
      "Ġli": 197,
      "Ġ!": 198,
      "Ġyour": 199,
      "out": 200,
      "Ġare": 201,
      "al": 202,
      "ght": 203,
      "ĠS": 204,
      "ri": 205,
      "Ġu": 206,
      "Ġcan": 207,
      "'t": 208,
      "im": 209,
      "as": 210,
      "all": 211,
      "ion": 212,
      "ent": 213,
      "ill": 214,
      "ĠO": 215,
      "ch": 216,
      "Ġst": 217,
      "ome": 218,
      "ĠM": 219,
      "ly": 220,
      "ro": 221,
      "ir": 222,
      "Ġan": 223,
      "Ġmy": 224,
      "Ġne": 225,
      "ĠIt": 226,
      "Ġgo": 227,
      "Ġlike": 228,
      "ith": 229,
      "ĠWe": 230,
      "ĠYou": 231,
      "ĠC": 232,
      "Ġk": 233,
      "ĠWhat": 234,
      "Ġse": 235,
      "ĠD": 236,
      "han": 237,
      "ac": 238,
      "Ġwith": 239,
      "ĠThe": 240,
      "ad": 241,
      "ood": 242,
      "ter": 243,
      "Ġthis": 244,
      "ust": 245,
      "Ġab": 246,
      "ĠB": 247,
      "Ġj": 248,
      "ink": 249,
      "Ġpl": 250,
      "our": 251,
      "ant": 252,
      "Ġso": 253,
      "ĠN": 254,
      "ĠYes": 255,
      "am": 256,
      "if": 257,
      "very": 258,
      "Ġat": 259,
      "ake": 260,
      "Ġabout": 261,
      "Ġsu": 262,
      "ally": 263,
      "ce": 264,
      "Ġwill": 265,
      "Ġthink": 266,
      "her": 267,
      "Ġdon": 268,
      "ry": 269,
      "Ġget": 270,
      "ct": 271,
      "Ġkn": 272,
      "Ġnot": 273,
      "Ġsh": 274,
      "'m": 275,
      "op": 276,
      "Ġknow": 277,
      "Ġwor": 278,
      "th": 279,
      "ĠThat": 280,
      "ook": 281,
      "ore": 282,
      "Ġbut": 283,
      "ur": 284,
      "Ġsee": 285,
      "Ġwas": 286,
      "ĠHow": 287,
      "ĠHe": 288,
      "ice": 289,
      "ble": 290,
      "Ġas": 291,
      "Ġthere": 292,
      "hank": 293,
      "ear": 294,
      "nt": 295,
      "Ġex": 296,
      "ge": 297,
      "ra": 298,
      "Ġsome": 299,
      "Ġcom": 300,
      "pp": 301,
      "right": 302,
      "ime": 303,
      "Ġall": 304,
      "ĠL": 305,
      "ind": 306,
      "Ġwhat": 307,
      "Ġwant": 308,
      "'ll": 309,
      "us": 310,
      "ight": 311,
      "ation": 312,
      "Ġany": 313,
      "Ġal": 314,
      "Ġgood": 315,
      "Ġor": 316,
      "Ġone": 317,
      "Ġjust": 318,
      "il": 319,
      "Ġpro": 320,
      "Ġright": 321,
      "ive": 322,
      "Ġwould": 323,
      "Ġvery": 324,
      "ul": 325,
      "art": 326,
      "Ġtime": 327,
      "ease": 328,
      "ĠG": 329,
      "ĠDo": 330,
      "ĠWell": 331,
      "est": 332,
      "one": 333,
      "ĠThank": 334,
      "ate": 335,
      "rom": 336,
      "ĠNo": 337,
      "Ġwork": 338,
      "Ġwh": 339,
      "Ġneed": 340,
      "Ġout": 341,
      "el": 342,
      "ess": 343,
      "qu": 344,
      "Ġmu": 345,
      "Ġtoo": 346,
      "ure": 347,
      "Ġreally": 348,
      "Ġhere": 349,
      "ine": 350,
      "ong": 351,
      "ĠOh": 352,
      "Ġam": 353,
      "hen": 354,
      "Ġup": 355,
      "Ġsp": 356,
      "Ġmuch": 357,
      "ĠE": 358,
      "ain": 359,
      "ck": 360,
      "ast": 361,
      "ment": 362,
      "ĠP": 363,
      "Ġgoing": 364,
      "day": 365,
      "Ġdid": 366,
      "Ġlook": 367,
      "ĠBut": 368,
      "ort": 369,
      "Ġthey": 370,
      "Ġour": 371,
      "Ġif": 372,
      "Ġtake": 373,
      "ers": 374,
      "ack": 375,
      "any": 376,
      "Ġco": 377,
      "ig": 378,
      "ound": 379,
      "ep": 380,
      "Ġr": 381,
      "Ġfrom": 382,
      "Ġcomp": 383,
      "ĠF": 384,
      "os": 385,
      "end": 386,
      "ie": 387,
      "Ġplease": 388,
      "ard": 389,
      "ĠJ": 390,
      "Ġus": 391,
      "lp": 392,
      "Ġcon": 393,
      "un": 394,
      "Ġcl": 395,
      "and": 396,
      "Ġhelp": 397,
      "Ġshould": 398,
      "ays": 399,
      "Ġfe": 400,
      "ning": 401,
      "Ġnow": 402,
      "Ġaf": 403,
      "ĠWh": 404,
      "fe": 405,
      "ĠR": 406,
      "Ġlo": 407,
      "reat": 408,
      "ite": 409,
      "ell": 410,
      "Ġmo": 411,
      "um": 412,
      "Ġqu": 413,
      "hing": 414,
      "Ġmore": 415,
      "are": 416,
      "Ġoff": 417,
      "ame": 418,
      "here": 419,
      "'ve": 420,
      "ist": 421,
      "Ġthem": 422,
      "ther": 423,
      "res": 424,
      "ick": 425,
      "Ġnew": 426,
      "Ġgot": 427,
      "Ġint": 428,
      "Ġbeen": 429,
      "thing": 430,
      "'re": 431,
      "Ġhow": 432,
      "Ġ1": 433,
      "ity": 434,
      "ĠAnd": 435,
      "ob": 436,
      "ak": 437,
      "ec": 438,
      "Ġv": 439,
      "Ġro": 440,
      "ree": 441,
      "Ġmake": 442,
      "Ġag": 443,
      "ĠCan": 444,
      "ĠIs": 445,
      "Ġea": 446,
      "Ġno": 447,
      "omet": 448,
      "ol": 449,
      "Ġcould": 450,
      "Ġ..": 451,
      "ies": 452,
      "ount": 453,
      "eop": 454,
      "ĠOK": 455,
      "eople": 456,
      "'d": 457,
      "ag": 458,
      "red": 459,
      "Ġ...": 460,
      "ass": 461,
      "ous": 462,
      "Ġby": 463,
      "Ġover": 464,
      "use": 465,
      "ĠTh": 466,
      "Ġwhen": 467,
      "per": 468,
      "Ġche": 469,
      "Ġhas": 470,
      "Ġtw": 471,
      "ish": 472,
      "Ġen": 473,
      "Ġshe": 474,
      "row": 475,
      "Ġlot": 476,
      "Ġpeople": 477,
      "Ġbus": 478,
      "Ġher": 479,
      "Ġbu": 480,
      "Ġtr": 481,
      "act": 482,
      "Ġwee": 483,
      "Ġevery": 484,
      "Ġthen": 485,
      "Ġcall": 486,
      "ĠLet": 487,
      "Ġsure": 488,
      "Ġsa": 489,
      "Ġch": 490,
      "Ġcome": 491,
      "00": 492,
      "Ġsomet": 493,
      "ough": 494,
      "Ġtell": 495,
      "Ġar": 496,
      "irst": 497,
      "der": 498,
      "orry": 499,
      "Ġwell": 500,
      "Ġthing": 501,
      "Ġbet": 502,
      "Ġhad": 503,
      "ven": 504,
      "ĠSo": 505,
      "able": 506,
      "ĠV": 507,
      "ĠGood": 508,
      "Ġgreat": 509,
      "Ġyear": 510,
      "ĠMay": 511,
      "lf": 512,
      "em": 513,
      "Ġafter": 514,
      "Ġday": 515,
      "age": 516,
      "Ġback": 517,
      "Ġlong": 518,
      "Ġdoes": 519,
      "ud": 520,
      "ĠAre": 521,
      "ving": 522,
      "xt": 523,
      "eah": 524,
      "ĠMy": 525,
      "Ġway": 526,
      "blem": 527,
      "ĠThey": 528,
      "ĠWhy": 529,
      "Ġproblem": 530,
      "ber": 531,
      "oy": 532,
      "Ġgive": 533,
      "Ġpre": 534,
      "Ġhim": 535,
      "cc": 536,
      "Ġcour": 537,
      "itt": 538,
      "Ġother": 539,
      "Ġsir": 540,
      "Ġlet": 541,
      "Ġjob": 542,
      "ĠHa": 543,
      "Ġwon": 544,
      "ĠIf": 545,
      "ect": 546,
      "ide": 547,
      "Ġapp": 548,
      "Ġroom": 549,
      "ĠThere": 550,
      "king": 551,
      "Ġtoday": 552,
      "Ġpr": 553,
      "Ġfirst": 554,
      "ĠCh": 555,
      "Ġll": 556,
      "Ġtwo": 557,
      "Ġad": 558,
      "ĠThis": 559,
      "pt": 560,
      "Ġonly": 561,
      "so": 562,
      "ually": 563,
      "port": 564,
      "ĠHere": 565,
      "Ġsomething": 566,
      "Ġlea": 567,
      "Ġgu": 568,
      "ĠMr": 569,
      "ary": 570,
      "Ġsay": 571,
      "Ġtry": 572,
      "Ġmany": 573,
      "Ġkind": 574,
      "Ġweek": 575,
      "Ġ2": 576,
      "Ġpay": 577,
      "be": 578,
      "Ġim": 579,
      "ĠYeah": 580,
      "Ġcourse": 581,
      "ab": 582,
      "ty": 583,
      "ress": 584,
      "Ġ'": 585,
      "ace": 586,
      "ance": 587,
      "riend": 588,
      "own": 589,
      "ich": 590,
      "orning": 591,
      "ĠOk": 592,
      "oney": 593,
      "Ġfeel": 594,
      "Ġbr": 595,
      "Ġcompany": 596,
      "ose": 597,
      "ĠThanks": 598,
      "ere": 599,
      "ool": 600,
      "other": 601,
      "Ġpart": 602,
      "Ġfind": 603,
      "ĠSure": 604,
      "ng": 605,
      "Ġres": 606,
      "ue": 607,
      "Ġfl": 608,
      "Ġlast": 609,
      "Ġmorning": 610,
      "Ġbetter": 611,
      "Ġsorry": 612,
      "ans": 613,
      "ef": 614,
      "Ġnext": 615,
      "Ġper": 616,
      "Ġanything": 617,
      "Ġmeet": 618,
      "ert": 619,
      "Ġchan": 620,
      "Ġdidn": 621,
      "Ġhapp": 622,
      "Ġalso": 623,
      "Ġbuy": 624,
      "ail": 625,
      "ial": 626,
      "Ġcar": 627,
      "Ġwere": 628,
      "Ġtra": 629,
      "Ġexp": 630,
      "Ġlove": 631,
      "Ġke": 632,
      "ought": 633,
      "erv": 634,
      "ater": 635,
      "Ġcheck": 636,
      "ĠHave": 637,
      "ady": 638,
      "ĠDon": 639,
      "Ġthan": 640,
      "ark": 641,
      "Ġmust": 642,
      "ittle": 643,
      "way": 644,
      "Ġid": 645,
      "ign": 646,
      "Ġlittle": 647,
      "ĠWould": 648,
      "Ġun": 649,
      "fore": 650,
      "Ġman": 651,
      "orrow": 652,
      "ause": 653,
      "Ġhis": 654,
      "ways": 655,
      "ting": 656,
      "Ġmay": 657,
      "Ġbefore": 658,
      "ounds": 659,
      "Ġmin": 660,
      "Ġmoney": 661,
      "Ġwho": 662,
      "erest": 663,
      "get": 664,
      "Ġnice": 665,
      "Ġbec": 666,
      "Ġalways": 667,
      "si": 668,
      "Ġwr": 669,
      "urn": 670,
      "Ġmon": 671,
      "llo": 672,
      "ise": 673,
      "Ġsm": 674,
      "ĠShe": 675,
      "Ġuse": 676,
      "ĠChin": 677,
      "du": 678,
      "Ġfriend": 679,
      "Ġstart": 680,
      "Ġinterest": 681,
      "Ġdown": 682,
      "ait": 683,
      "orm": 684,
      "alk": 685,
      "Ġidea": 686,
      "Ġdif": 687,
      "ful": 688,
      "ip": 689,
      "Ġask": 690,
      "ĠVe": 691,
      "Ġagain": 692,
      "Ġyes": 693,
      "ition": 694,
      "iz": 695,
      "ĠIn": 696,
      "Ġhar": 697,
      "Ġtea": 698,
      "Ġacc": 699,
      "atch": 700,
      "Ġmonth": 701,
      "Ġdis": 702,
      "lly": 703,
      "Ġhome": 704,
      "ĠHello": 705,
      "ff": 706,
      "ĠWhen": 707,
      "Ġthings": 708,
      "ĠDid": 709,
      "Ġthank": 710,
      "Ġbl": 711,
      "Ġplay": 712,
      "Ġname": 713,
      "ade": 714,
      "Ġtom": 715,
      "mer": 716,
      "self": 717,
      "ĠNot": 718,
      "Ġthese": 719,
      "Ġsc": 720,
      "ĠU": 721,
      "Ġcha": 722,
      "ĠWhere": 723,
      "Ġmean": 724,
      "ile": 725,
      "ost": 726,
      "Ġnight": 727,
      "Ġhop": 728,
      "Ġstill": 729,
      "ĠEx": 730,
      "Ġwhere": 731,
      "ĠAll": 732,
      "ĠPl": 733,
      "vie": 734,
      "Ġtomorrow": 735,
      "Ġminut": 736,
      "Ġmost": 737,
      "nder": 738,
      "iss": 739,
      "Ġput": 740,
      "ars": 741,
      "Ġdep": 742,
      "oin": 743,
      "Ġfew": 744,
      "Ġrec": 745,
      "av": 746,
      "od": 747,
      "Ġtheir": 748,
      "Ġdays": 749,
      "ens": 750,
      "ĠHi": 751,
      "ĠAn": 752,
      "Ġhard": 753,
      "ire": 754,
      "fere": 755,
      "Ġclass": 756,
      "Ġfood": 757,
      "Ġfin": 758,
      "Ġdr": 759,
      "Ġinter": 760,
      "ĠCould": 761,
      "Ġdoing": 762,
      "Ġinto": 763,
      "ese": 764,
      "ang": 765,
      "Ġshow": 766,
      "ions": 767,
      "ild": 768,
      "ap": 769,
      "Ġsch": 770,
      "Ġwhy": 771,
      "Ġ3": 772,
      "ouse": 773,
      "Ġbest": 774,
      "Ġunder": 775,
      "ner": 776,
      "Ġpos": 777,
      "Ġwait": 778,
      "Ġnever": 779,
      "Ġcont": 780,
      "Ġbig": 781,
      "Ġbad": 782,
      "Ġbook": 783,
      "Ġph": 784,
      "Ġstud": 785,
      "ond": 786,
      "ĠPlease": 787,
      "ĠJust": 788,
      "Ġkeep": 789,
      "ence": 790,
      "eat": 791,
      "Ġel": 792,
      "ious": 793,
      "ms": 794,
      "Ġhour": 795,
      "Ġschool": 796,
      "ock": 797,
      "Ġcare": 798,
      "Ġgr": 799,
      "iness": 800,
      "ĠThen": 801,
      "lish": 802,
      "Ġdec": 803,
      "ĠEng": 804,
      "Ġhope": 805,
      "ried": 806,
      "Ġfine": 807,
      "Ġbecause": 808,
      "Ġmind": 809,
      "Ġ$": 810,
      "Ġcard": 811,
      "Ġfam": 812,
      "Ġaround": 813,
      "artment": 814,
      "igh": 815,
      "Ġelse": 816,
      "Ġyears": 817,
      "Ġthree": 818,
      "gg": 819,
      "imes": 820,
      "eal": 821,
      "ĠOf": 822,
      "Ġquite": 823,
      "pl": 824,
      "Ġnum": 825,
      "eas": 826,
      "ult": 827,
      "hed": 828,
      "raid": 829,
      "form": 830,
      "hes": 831,
      "Ġafraid": 832,
      "ĠRea": 833,
      "Ġpa": 834,
      "Ġplan": 835,
      "vel": 836,
      "ee": 837,
      "ertain": 838,
      "cuse": 839,
      "ves": 840,
      "Ġdiffere": 841,
      "cl": 842,
      "Ġdoll": 843,
      "oon": 844,
      "ĠSt": 845,
      "Ġact": 846,
      "ily": 847,
      "Ġcount": 848,
      "Ġhand": 849,
      "Ġlooking": 850,
      "eak": 851,
      "Ġma": 852,
      "Ġoffice": 853,
      "ĠEnglish": 854,
      "Ġbusiness": 855,
      "Ġworking": 856,
      "Ġorder": 857,
      "Ġhot": 858,
      "erson": 859,
      "Ġ5": 860,
      "Ġtak": 861,
      "Ġisn": 862,
      "ĠReally": 863,
      "ĠK": 864,
      "ĠMaybe": 865,
      "Ġold": 866,
      "Ġsounds": 867,
      "Ġdrink": 868,
      "Ġhouse": 869,
      "Ġsupp": 870,
      "Ġsha": 871,
      "Ġrem": 872,
      "Ġsoon": 873,
      "joy": 874,
      "Ġmade": 875,
      "anc": 876,
      "Ġthought": 877,
      "Ġsal": 878,
      "ations": 879,
      "Ġstay": 880,
      "come": 881,
      "fer": 882,
      "Ġbel": 883,
      "Ġrest": 884,
      "ten": 885,
      "Ġbea": 886,
      "Ġplace": 887,
      "ieve": 888,
      "Ġdoesn": 889,
      "Ġnumber": 890,
      "wn": 891,
      "Ġchar": 892,
      "ank": 893,
      "ord": 894,
      "les": 895,
      "Ġgl": 896,
      "Ġsaid": 897,
      "und": 898,
      "ĠExcuse": 899,
      "Ġanother": 900,
      "noon": 901,
      "Ġwonder": 902,
      "Ġafternoon": 903,
      "Ġenjoy": 904,
      "ash": 905,
      "Ġca": 906,
      "Ġlate": 907,
      "Ġhear": 908,
      "Ġlear": 909,
      "ew": 910,
      "Ġear": 911,
      "Ġpass": 912,
      "oth": 913,
      "oint": 914,
      "Ġsame": 915,
      "Ġeven": 916,
      "Ġhaven": 917,
      "Ġatt": 918,
      "Ġop": 919,
      "Ġrel": 920,
      "ĠChinese": 921,
      "Ġton": 922,
      "Ġwhich": 923,
      "Ġchange": 924,
      "Ġprice": 925,
      "ple": 926,
      "Ġsw": 927,
      "ye": 928,
      "Ġdollars": 929,
      "Ġheard": 930,
      "Ġminutes": 931,
      "Ġeach": 932,
      "Ġsec": 933,
      "ffe": 934,
      "ix": 935,
      "ĠNow": 936,
      "lcome": 937,
      "vers": 938,
      "Ġsuch": 939,
      "Ġspec": 940,
      "Ġmight": 941,
      "Ġmak": 942,
      "Ġperson": 943,
      "Ġaccount": 944,
      "ient": 945,
      "Ġdes": 946,
      "Ġdin": 947,
      "ĠOn": 948,
      "Ġguess": 949,
      "uck": 950,
      "Ġtalk": 951,
      "Ġeve": 952,
      "Ġeverything": 953,
      "Ġimport": 954,
      "Ġdri": 955,
      "og": 956,
      "tty": 957,
      "ated": 958,
      "ather": 959,
      "ax": 960,
      "Ġmom": 961,
      "Ġinv": 962,
      "Ġdone": 963,
      "Ġserv": 964,
      "Ġra": 965,
      "ready": 966,
      "Ġsk": 967,
      "Ġread": 968,
      "Ġalready": 969,
      "ertainly": 970,
      "Ġmat": 971,
      "Ġleave": 972,
      "Ġins": 973,
      "Ġem": 974,
      "Ġgetting": 975,
      "Ġdifferent": 976,
      "Ġbring": 977,
      "ember": 978,
      "Ġenough": 979,
      "stand": 980,
      "Ġprodu": 981,
      "Ġtonight": 982,
      "Ġyet": 983,
      "ĠOkay": 984,
      "Ġwatch": 985,
      "Ġusually": 986,
      "Ġeat": 987,
      "ict": 988,
      "icket": 989,
      "Ġbit": 990,
      "Ġcomput": 991,
      "Ġhigh": 992,
      "ĠYour": 993,
      "Ġwhile": 994,
      "ps": 995,
      "Ġbre": 996,
      "ory": 997,
      "ular": 998,
      "Ġhappen": 999,
      "ren": 1000,
      "Ġticket": 1001,
      "Ġfun": 1002,
      "Ġfriends": 1003,
      "ork": 1004,
      "Ġworry": 1005,
      "Ġvis": 1006,
      "Ġbelieve": 1007,
      "Ġset": 1008,
      "Ġgir": 1009,
      "Ġbo": 1010,
      "Ġtrain": 1011,
      "Ġdinner": 1012,
      "sy": 1013,
      "Ġfo": 1014,
      "Ġbeaut": 1015,
      "ical": 1016,
      "Ġlooks": 1017,
      "Ġpretty": 1018,
      "ience": 1019,
      "Ġready": 1020,
      "Ġstop": 1021,
      "sible": 1022,
      "Ġter": 1023,
      "Ġmar": 1024,
      "Ġthose": 1025,
      "Ġmeeting": 1026,
      "rough": 1027,
      "Ġturn": 1028,
      "Ġdisc": 1029,
      "ĠAny": 1030,
      "Ġlater": 1031,
      "Ġlist": 1032,
      "Ġcost": 1033,
      "Ġimportant": 1034,
      "Ġap": 1035,
      "Ġde": 1036,
      "ize": 1037,
      "Ġlive": 1038,
      "up": 1039,
      "Ġser": 1040,
      "Ġinform": 1041,
      "cept": 1042,
      "ĠWill": 1043,
      "view": 1044,
      "iv": 1045,
      "Ġaway": 1046,
      "ĠHey": 1047,
      "ctor": 1048,
      "Ġcoming": 1049,
      "Ġused": 1050,
      "Ġwrong": 1051,
      "Ġunderstand": 1052,
      "ub": 1053,
      "Ġthrough": 1054,
      "Ġevening": 1055,
      "Ġcoll": 1056,
      "Ġhappy": 1057,
      "uan": 1058,
      "Ġair": 1059,
      "Ġadd": 1060,
      "Ġtri": 1061,
      "ĠFr": 1062,
      "Ġreg": 1063,
      "eft": 1064,
      "Ġphone": 1065,
      "Ġshop": 1066,
      "Ġopen": 1067,
      "Ġexc": 1068,
      "Ġspeak": 1069,
      "Ġsmall": 1070,
      "Ġexper": 1071,
      "Ġparty": 1072,
      "Ġfree": 1073,
      "Ġsign": 1074,
      "Ġcou": 1075,
      "ities": 1076,
      "Ġfr": 1077,
      "Ġoften": 1078,
      "Ġleft": 1079,
      "Ġever": 1080,
      "Ġfamily": 1081,
      "Ġ10": 1082,
      "gether": 1083,
      "Ġspecial": 1084,
      "Ġdel": 1085,
      "Ġcity": 1086,
      "Ġthanks": 1087,
      "ĠJo": 1088,
      "arket": 1089,
      "meric": 1090,
      "Ġcomputer": 1091,
      "iting": 1092,
      "iday": 1093,
      "its": 1094,
      "Ġten": 1095,
      "Ġrun": 1096,
      "ments": 1097,
      "Ġlearn": 1098,
      "ĠAl": 1099,
      "ction": 1100,
      "lor": 1101,
      "Ġmus": 1102,
      "Ġbeautif": 1103,
      "ĠAmeric": 1104,
      "ĠLook": 1105,
      "ably": 1106,
      "Ġte": 1107,
      "Ġend": 1108,
      "Ġsend": 1109,
      "Ġeasy": 1110,
      "Ġoffer": 1111,
      "Ġown": 1112,
      "ĠBe": 1113,
      "Ġcountry": 1114,
      "Ġfar": 1115,
      "ved": 1116,
      "Ġpres": 1117,
      "Ġla": 1118,
      "Ġmoment": 1119,
      "ia": 1120,
      "Ġchild": 1121,
      "Ġmiss": 1122,
      "Ġquest": 1123,
      "Ġbeautiful": 1124,
      "Ġseems": 1125,
      "Ġ6": 1126,
      "Ġac": 1127,
      "kend": 1128,
      "ery": 1129,
      "Ġweekend": 1130,
      "Ġrece": 1131,
      "ĠWhich": 1132,
      "Ġstr": 1133,
      "ĠGreat": 1134,
      "Ġservice": 1135,
      "een": 1136,
      "ward": 1137,
      "ian": 1138,
      "ivers": 1139,
      "lic": 1140,
      "Ġnews": 1141,
      "Ġimp": 1142,
      "ĠSorry": 1143,
      "ever": 1144,
      "gr": 1145,
      "Ġexpens": 1146,
      "Ġkid": 1147,
      "oss": 1148,
      "Ġfav": 1149,
      "Ġcons": 1150,
      "Ġfive": 1151,
      "Ġagree": 1152,
      "Ġprom": 1153,
      "ĠWho": 1154,
      "ĠFor": 1155,
      "fect": 1156,
      "Ġ4": 1157,
      "nts": 1158,
      "aur": 1159,
      "Ġtogether": 1160,
      "ited": 1161,
      "Ġbreak": 1162,
      "ull": 1163,
      "ploy": 1164,
      "old": 1165,
      "Ġtold": 1166,
      "Ġhaving": 1167,
      "Ġglad": 1168,
      "bably": 1169,
      "Ġwent": 1170,
      "Ġinterested": 1171,
      "Ġremember": 1172,
      "ffee": 1173,
      "ouble": 1174,
      "Ġable": 1175,
      "Ġtrue": 1176,
      "Ġret": 1177,
      "Ġyourself": 1178,
      "air": 1179,
      "Ġlife": 1180,
      "ired": 1181,
      "pe": 1182,
      "ping": 1183,
      "ince": 1184,
      "Ġreal": 1185,
      "Ġprefer": 1186,
      "ody": 1187,
      "Ġsl": 1188,
      "ents": 1189,
      "ĠCome": 1190,
      "Ġinterview": 1191,
      "Ġhours": 1192,
      "oor": 1193,
      "Ġform": 1194,
      "ates": 1195,
      "Ġext": 1196,
      "Ġok": 1197,
      "ĠChina": 1198,
      "Ġinformation": 1199,
      "hn": 1200,
      "ract": 1201,
      "Ġ7": 1202,
      "Ġwelcome": 1203,
      "Ġinteresting": 1204,
      "iet": 1205,
      "Ġbeing": 1206,
      "Ġmovie": 1207,
      "Ġseat": 1208,
      "Ġworld": 1209,
      "Ġsomeone": 1210,
      "ife": 1211,
      "Ġmyself": 1212,
      "ntil": 1213,
      "aurant": 1214,
      "Ġcoffee": 1215,
      "Ġstudy": 1216,
      "Ġsing": 1217,
      "Ġproduct": 1218,
      "Ġpleas": 1219,
      "ices": 1220,
      "Ġmanag": 1221,
      "Ġ8": 1222,
      "alking": 1223,
      "Ġsur": 1224,
      "Ġgirl": 1225,
      "Ġpick": 1226,
      "Ġtrans": 1227,
      "ding": 1228,
      "ĠWow": 1229,
      "Ġnothing": 1230,
      "enty": 1231,
      "Ġfill": 1232,
      "Ġfavor": 1233,
      "ĠAs": 1234,
      "iate": 1235,
      "Ġbusy": 1236,
      "Ġexpect": 1237,
      "Ġmusic": 1238,
      "terday": 1239,
      "unch": 1240,
      "ike": 1241,
      "ĠTo": 1242,
      "Ġthinking": 1243,
      "Ġapartment": 1244,
      "Ġexpensive": 1245,
      "most": 1246,
      "Ġmarket": 1247,
      "Ġmatter": 1248,
      "ts": 1249,
      "Ġfour": 1250,
      "Ġuntil": 1251,
      "Ġguy": 1252,
      "ĠJohn": 1253,
      "Ġpol": 1254,
      "room": 1255,
      "Ġcomm": 1256,
      "Ġav": 1257,
      "reet": 1258,
      "Ġwater": 1259,
      "Ġcred": 1260,
      "Ġbank": 1261,
      "Ġlar": 1262,
      "Ġluck": 1263,
      "eather": 1264,
      "ating": 1265,
      "ĠMary": 1266,
      "ely": 1267,
      "fic": 1268,
      "ied": 1269,
      "Ġboth": 1270,
      "ĠDoes": 1271,
      "Ġadv": 1272,
      "Ġactually": 1273,
      "Ġcor": 1274,
      "Ġspend": 1275,
      "Ġcompl": 1276,
      "000": 1277,
      "ons": 1278,
      "Ġbed": 1279,
      "Ġbir": 1280,
      "Ġinst": 1281,
      "ph": 1282,
      "atur": 1283,
      "Ġrestaurant": 1284,
      "Ġcle": 1285,
      "omm": 1286,
      "Ġprobably": 1287,
      "Ġwin": 1288,
      "Ġseen": 1289,
      "Ġmaybe": 1290,
      "Ġexam": 1291,
      "mm": 1292,
      "ĠSee": 1293,
      "actly": 1294,
      "Ġsecond": 1295,
      "Ġsit": 1296,
      "Ġcook": 1297,
      "Ġmet": 1298,
      "ides": 1299,
      "Ġyesterday": 1300,
      "Ġcharge": 1301,
      "ual": 1302,
      "Ġty": 1303,
      "Ġweather": 1304,
      "Ġthir": 1305,
      "Ġexperience": 1306,
      "az": 1307,
      "Ġnear": 1308,
      "Ġbeg": 1309,
      "leep": 1310,
      "ific": 1311,
      "ject": 1312,
      "Ġwalk": 1313,
      "Ġwife": 1314,
      "Ġfil": 1315,
      "Ġdeal": 1316,
      "ĠTom": 1317,
      "tern": 1318,
      "Ġcho": 1319,
      "Ġposition": 1320,
      "Ġpossible": 1321,
      "cher": 1322,
      "Ġbag": 1323,
      "Ġheal": 1324,
      "arents": 1325,
      "Ġcalled": 1326,
      "Ġtrip": 1327,
      "Ġtable": 1328,
      "Ġfound": 1329,
      "ĠAct": 1330,
      "ĠBy": 1331,
      "ead": 1332,
      "Ġhappened": 1333,
      "cy": 1334,
      "Ġind": 1335,
      "Ġsuit": 1336,
      "clud": 1337,
      "Ġboss": 1338,
      "ors": 1339,
      "Ġstand": 1340,
      "Ġcold": 1341,
      "Ġago": 1342,
      "ĠActually": 1343,
      "Ġqual": 1344,
      "Ġflight": 1345,
      "Ġemploy": 1346,
      "Ġwear": 1347,
      "Ġhead": 1348,
      "time": 1349,
      "Ġsugg": 1350,
      "iversity": 1351,
      "Ġmanager": 1352,
      "Ġsuggest": 1353,
      "ft": 1354,
      "Ġhalf": 1355,
      "ention": 1356,
      "Ġ-": 1357,
      "Ġyuan": 1358,
      "Ġshort": 1359,
      "Ġvisit": 1360,
      "Ġcredit": 1361,
      "Ġent": 1362,
      "Ġcash": 1363,
      "ĠSm": 1364,
      "Ġsub": 1365,
      "Ġclot": 1366,
      "Ġtravel": 1367,
      "ny": 1368,
      "Ġcut": 1369,
      "Ġdress": 1370,
      "Ġalmost": 1371,
      "ger": 1372,
      "Ġdoctor": 1373,
      "ĠCertainly": 1374,
      "osed": 1375,
      "Ġterri": 1376,
      "ished": 1377,
      "Ġparents": 1378,
      "Ġwar": 1379,
      "Ġfact": 1380,
      "ange": 1381,
      "Ġhealth": 1382,
      "ĠNew": 1383,
      "ĠEvery": 1384,
      "ĠFine": 1385,
      "br": 1386,
      "Ġhotel": 1387,
      "Ġsever": 1388,
      "Ġserious": 1389,
      "Ġpack": 1390,
      "Ġthough": 1391,
      "Ġhur": 1392,
      "ason": 1393,
      "Ġvac": 1394,
      "Ġweeks": 1395,
      "Ġtaking": 1396,
      "Ġbirth": 1397,
      "Ġseveral": 1398,
      "Ġcur": 1399,
      "Ġdepartment": 1400,
      "Ġ9": 1401,
      "erc": 1402,
      "Ġbought": 1403,
      "Ġlight": 1404,
      "Ġcolor": 1405,
      "Ġcam": 1406,
      "ries": 1407,
      "ach": 1408,
      "Ġbill": 1409,
      "line": 1410,
      "Ġtimes": 1411,
      "Ġmed": 1412,
      "Ġfore": 1413,
      "ense": 1414,
      "Ġmove": 1415,
      "Ġperfect": 1416,
      "Ġintern": 1417,
      "ĠOur": 1418,
      "ces": 1419,
      "Ġwish": 1420,
      "Ġpop": 1421,
      "ics": 1422,
      "Ġele": 1423,
      "Ġseem": 1424,
      "Ġhair": 1425,
      "ott": 1426,
      "ational": 1427,
      "Ġclean": 1428,
      "oose": 1429,
      "Ġonce": 1430,
      "Ġreserv": 1431,
      "Ġsmo": 1432,
      "uring": 1433,
      "ures": 1434,
      "ages": 1435,
      "Ġcase": 1436,
      "Ġmakes": 1437,
      "Ġclothes": 1438,
      "ustom": 1439,
      "Ġ%": 1440,
      "ither": 1441,
      "Ġcalling": 1442,
      "Ġlost": 1443,
      "ĠUn": 1444,
      "jing": 1445,
      "Ġbas": 1446,
      "Ġsum": 1447,
      "ortun": 1448,
      "ĠRight": 1449,
      "Ġminute": 1450,
      "ues": 1451,
      "Ġpaper": 1452,
      "Ġfast": 1453,
      "Ġinclud": 1454,
      "Ġavail": 1455,
      "where": 1456,
      "Ġcr": 1457,
      "ffic": 1458,
      "oes": 1459,
      "Ġtour": 1460,
      "reen": 1461,
      "ĠAf": 1462,
      "Ġstore": 1463,
      "Ġwanted": 1464,
      "ommend": 1465,
      "Ġve": 1466,
      "rec": 1467,
      "Ġdiffic": 1468,
      "ĠFriday": 1469,
      "ught": 1470,
      "Ġ;": 1471,
      "ines": 1472,
      "Ġdate": 1473,
      "Ġrather": 1474,
      "Ġsaw": 1475,
      "Ġresp": 1476,
      "Ġlarge": 1477,
      "Ġred": 1478,
      "ift": 1479,
      "Ġexerc": 1480,
      "Ġrecommend": 1481,
      "ont": 1482,
      "Ġ20": 1483,
      "Ġtalking": 1484,
      "Ġbro": 1485,
      "Ġdire": 1486,
      "Ġsell": 1487,
      "Ġeveryone": 1488,
      "Ġmarried": 1489,
      "got": 1490,
      "pr": 1491,
      "ĠAt": 1492,
      "Ġass": 1493,
      "Ġbirthday": 1494,
      "Ġrent": 1495,
      "ĠAb": 1496,
      "Ġmonths": 1497,
      "Ġbegin": 1498,
      "ream": 1499,
      "ĠMe": 1500,
      "Ġapprec": 1501,
      "ĠOne": 1502,
      "Ġavailable": 1503,
      "hip": 1504,
      "Ġline": 1505,
      "ided": 1506,
      "als": 1507,
      "cell": 1508,
      "Ġcomes": 1509,
      "Ġmach": 1510,
      "na": 1511,
      "Ġref": 1512,
      "Ġearly": 1513,
      "Ġhat": 1514,
      "Ġsleep": 1515,
      "Ġaccept": 1516,
      "ĠSmith": 1517,
      "nce": 1518,
      "Ġwrite": 1519,
      "Ġstarted": 1520,
      "It": 1521,
      "ially": 1522,
      "Ġ\"": 1523,
      "Ġwind": 1524,
      "Ġpie": 1525,
      "Ġaren": 1526,
      "ently": 1527,
      "Ġrain": 1528,
      "Ġchildren": 1529,
      "ball": 1530,
      "Ġsim": 1531,
      "Ġconc": 1532,
      "ijing": 1533,
      "Ġsince": 1534,
      "Ġcustom": 1535,
      "Ġlunch": 1536,
      "Ġrep": 1537,
      "Ġwouldn": 1538,
      "Ġteacher": 1539,
      "ĠBeijing": 1540,
      "osit": 1541,
      "Ġappoint": 1542,
      "Ġ15": 1543,
      "Ġmaking": 1544,
      "bye": 1545,
      "Ġtast": 1546,
      "Ġtrying": 1547,
      "Ġreturn": 1548,
      "cri": 1549,
      "ier": 1550,
      "ident": 1551,
      "Ġconf": 1552,
      "Ġfeeling": 1553,
      "ision": 1554,
      "Ġpoint": 1555,
      "ames": 1556,
      "Ġexactly": 1557,
      "Ġfavorite": 1558,
      "Ġdifficult": 1559,
      "work": 1560,
      "Ġsix": 1561,
      "llow": 1562,
      "Ġdet": 1563,
      "Ġpain": 1564,
      "ĠTV": 1565,
      "Ġshopping": 1566,
      "ase": 1567,
      "ath": 1568,
      "Ġloc": 1569,
      "Ġprep": 1570,
      "Ġletter": 1571,
      "gram": 1572,
      "Ġreservation": 1573,
      "Ġsummer": 1574,
      "Ġfull": 1575,
      "Ġcouldn": 1576,
      "Ġteam": 1577,
      "ming": 1578,
      "side": 1579,
      "Ġalong": 1580,
      "zy": 1581,
      "Ġyoung": 1582,
      "Ġgame": 1583,
      "ower": 1584,
      "icy": 1585,
      "Ġhon": 1586,
      "Ġleast": 1587,
      "haps": 1588,
      "Ġtook": 1589,
      "orts": 1590,
      "Ġproblems": 1591,
      "Ġproducts": 1592,
      "Ġsays": 1593,
      "Ġtot": 1594,
      "ider": 1595,
      "ĠMon": 1596,
      "Ġchoose": 1597,
      "The": 1598,
      "mp": 1599,
      "Ġsy": 1600,
      "Ġcame": 1601,
      "Ġreason": 1602,
      "adam": 1603,
      "Ġgrad": 1604,
      "Ġsales": 1605,
      "Ġwonderful": 1606,
      "ĠAfter": 1607,
      "Ġreport": 1608,
      "Ġliving": 1609,
      "Ġquick": 1610,
      "ne": 1611,
      "Ġtest": 1612,
      "Ġmain": 1613,
      "Ġtop": 1614,
      "ister": 1615,
      "Ġle": 1616,
      "Ġbooks": 1617,
      "Ġpleasure": 1618,
      "ling": 1619,
      "Ġsize": 1620,
      "Ġstreet": 1621,
      "Ġword": 1622,
      "ush": 1623,
      "Ġprogram": 1624,
      "olut": 1625,
      "ret": 1626,
      "Ġduring": 1627,
      "eaking": 1628,
      "Ġinc": 1629,
      "Ġforget": 1630,
      "Ġwasn": 1631,
      "undred": 1632,
      "man": 1633,
      "Ġwithout": 1634,
      "Ġwhole": 1635,
      "cess": 1636,
      "ully": 1637,
      "Ġ(": 1638,
      "Ġ)": 1639,
      "ital": 1640,
      "Ġchance": 1641,
      "aturday": 1642,
      "rist": 1643,
      "ss": 1644,
      "Ġbar": 1645,
      "Ġboy": 1646,
      "Ġpict": 1647,
      "ĠSounds": 1648,
      "head": 1649,
      "raw": 1650,
      "Ġcouple": 1651,
      "Ġpresent": 1652,
      "Ġes": 1653,
      "Ġcertainly": 1654,
      "Ġits": 1655,
      "Ġ12": 1656,
      "Ġtrouble": 1657,
      "ĠSome": 1658,
      "Ġdrive": 1659,
      "Ġappreciate": 1660,
      "cellent": 1661,
      "aper": 1662,
      "Ġtired": 1663,
      "Ġdef": 1664,
      "Ġless": 1665,
      "Ġhundred": 1666,
      "Ġsty": 1667,
      "Ġbuild": 1668,
      "ĠVery": 1669,
      "body": 1670,
      "pec": 1671,
      "oup": 1672,
      "ility": 1673,
      "ĠPer": 1674,
      "band": 1675,
      "ege": 1676,
      "Ġrequ": 1677,
      "ĠSaturday": 1678,
      "Ġappointment": 1679,
      "ĠTake": 1680,
      "rown": 1681,
      "Ġlisten": 1682,
      "led": 1683,
      "Ġpri": 1684,
      "Ġmem": 1685,
      "urance": 1686,
      "Ġcontract": 1687,
      "Ġmaj": 1688,
      "Ġhold": 1689,
      "ĠMiss": 1690,
      "angu": 1691,
      "Ġexercise": 1692,
      "ced": 1693,
      "Ġsn": 1694,
      "Ġseven": 1695,
      "uff": 1696,
      "Ġpost": 1697,
      "Ġsometimes": 1698,
      "Ġapply": 1699,
      "pecially": 1700,
      "ness": 1701,
      "inite": 1702,
      "Ġside": 1703,
      "Ġed": 1704,
      "Ġtax": 1705,
      "Ġmess": 1706,
      "Ġpur": 1707,
      "Ġforward": 1708,
      "ecause": 1709,
      "Ġfloor": 1710,
      "Ġworked": 1711,
      "But": 1712,
      "Ġtried": 1713,
      "Ġgen": 1714,
      "Ġeither": 1715,
      "ĠSh": 1716,
      "Ġprof": 1717,
      "Ġart": 1718,
      "Ġwaiting": 1719,
      "Ġhus": 1720,
      "Ġarri": 1721,
      "ĠChrist": 1722,
      "Ġdecided": 1723,
      "Ġquestion": 1724,
      "Ġquestions": 1725,
      "Ġvacation": 1726,
      "Ġhusband": 1727,
      "Ġmeans": 1728,
      "Ġuniversity": 1729,
      "Ġsupposed": 1730,
      "Ġshall": 1731,
      "Ġwom": 1732,
      "Ġcop": 1733,
      "Ġlangu": 1734,
      "Ġneeds": 1735,
      "ĠFirst": 1736,
      "Ġchang": 1737,
      "Ġinsurance": 1738,
      "Ġrecei": 1739,
      "You": 1740,
      "ave": 1741,
      "Ġopp": 1742,
      "Ġlik": 1743,
      "Ġkey": 1744,
      "Ġdeposit": 1745,
      "Ġconsider": 1746,
      "Ġcatch": 1747,
      "ume": 1748,
      "Ġpopular": 1749,
      "Ġmajor": 1750,
      "cu": 1751,
      "less": 1752,
      "ring": 1753,
      "int": 1754,
      "Ġmother": 1755,
      "Ġhol": 1756,
      "ĠBecause": 1757,
      "Ġallow": 1758,
      "ĠAmerican": 1759,
      "Ġreceive": 1760,
      "Ġasked": 1761,
      "Ġsalary": 1762,
      "Ġbox": 1763,
      "Ġextra": 1764,
      "Ġcomplet": 1765,
      "Ġterrible": 1766,
      "solut": 1767,
      "Ġcent": 1768,
      "Ġbott": 1769,
      "Ġjoin": 1770,
      "uss": 1771,
      "Ġchick": 1772,
      "clock": 1773,
      "Ġface": 1774,
      "Ġsun": 1775,
      "ween": 1776,
      "Ġmen": 1777,
      "Ġda": 1778,
      "Ġcond": 1779,
      "olog": 1780,
      "Ġfoot": 1781,
      "Ġcollege": 1782,
      "by": 1783,
      "Ġpub": 1784,
      "ĠSomet": 1785,
      "Ġlose": 1786,
      "Ġfinished": 1787,
      "ĠAnything": 1788,
      "Ġforeign": 1789,
      "eed": 1790,
      "ered": 1791,
      "Ġpast": 1792,
      "esides": 1793,
      "astic": 1794,
      "Ġrate": 1795,
      "Ġfollow": 1796,
      "oll": 1797,
      "uc": 1798,
      "Ġsick": 1799,
      "Ġcool": 1800,
      "Ġforgot": 1801,
      "Ġtraffic": 1802,
      "Ġhate": 1803,
      "ru": 1804,
      "Ġaw": 1805,
      "Ġwine": 1806,
      "Ġones": 1807,
      "Ġsuper": 1808,
      "Ġoutside": 1809,
      "Ġpersonal": 1810,
      "Ġthirty": 1811,
      "Ġdance": 1812,
      "Ġtwenty": 1813,
      "solutely": 1814,
      "Ġyeah": 1815,
      "Ġmil": 1816,
      "Ġpar": 1817,
      "Ġspeaking": 1818,
      "Ġpartic": 1819,
      "Ġrelax": 1820,
      "Ġfit": 1821,
      "Ġbetween": 1822,
      "Ġpract": 1823,
      "Ġsuppose": 1824,
      "Ġattend": 1825,
      "Ġwinter": 1826,
      "Ġrespon": 1827,
      "Ġespecially": 1828,
      "Ġahead": 1829,
      "vert": 1830,
      "ĠSir": 1831,
      "Ġcra": 1832,
      "itc": 1833,
      "ised": 1834,
      "ĠBob": 1835,
      "Ġtele": 1836,
      "Ġprepare": 1837,
      "initely": 1838,
      "cle": 1839,
      "ives": 1840,
      "Ġprov": 1841,
      "Ġdepend": 1842,
      "Ġpaid": 1843,
      "Ġcondition": 1844,
      "Ġweight": 1845,
      "ĠSha": 1846,
      "ĠBye": 1847,
      "Ġblack": 1848,
      "Ġfinish": 1849,
      "Ġkids": 1850,
      "Ġmachine": 1851,
      "Ġi": 1852,
      "Ġstuff": 1853,
      "irt": 1854,
      "Ġclose": 1855,
      "ails": 1856,
      "Ġquality": 1857,
      "Ġwhe": 1858,
      "Ġpark": 1859,
      "Ġ100": 1860,
      "Ġgradu": 1861,
      "vies": 1862,
      "Ġfather": 1863,
      "stem": 1864,
      "Ġeight": 1865,
      "hang": 1866,
      "Ġgets": 1867,
      "Ġanyway": 1868,
      "Ġclear": 1869,
      "Ġdiscuss": 1870,
      "Ġchicken": 1871,
      "ins": 1872,
      "Ġfig": 1873,
      "omp": 1874,
      "ĠWait": 1875,
      "ature": 1876,
      "ield": 1877,
      "ĠJan": 1878,
      "Ġsale": 1879,
      "Ġmeal": 1880,
      "ets": 1881,
      "ĠWelcome": 1882,
      "Ġmovies": 1883,
      "Ġ30": 1884,
      "Ġswim": 1885,
      "Ġdeli": 1886,
      "ses": 1887,
      "Ġfix": 1888,
      "Ġdocu": 1889,
      "Ġey": 1890,
      "Ġstra": 1891,
      "Ġexcellent": 1892,
      "Ġkinds": 1893,
      "ĠAmerica": 1894,
      "ings": 1895,
      "outh": 1896,
      "ĠGo": 1897,
      "Ġconven": 1898,
      "resh": 1899,
      "Ġtaken": 1900,
      "Ġreading": 1901,
      "Ġsystem": 1902,
      "Ġreceipt": 1903,
      "ator": 1904,
      "Ġonline": 1905,
      "irm": 1906,
      "ĠNice": 1907,
      "Ġeasi": 1908,
      "ousand": 1909,
      "Ġplaying": 1910,
      "Ġokay": 1911,
      "mas": 1912,
      "ove": 1913,
      "ug": 1914,
      "Ġbor": 1915,
      "Ġamount": 1916,
      "velop": 1917,
      "Ġpassport": 1918,
      "Ġbecome": 1919,
      "Ġtakes": 1920,
      "Ġaddress": 1921,
      "ĠAlright": 1922,
      "ib": 1923,
      "sw": 1924,
      "Ġpress": 1925,
      "Ġdoor": 1926,
      "ills": 1927,
      "ross": 1928,
      "Ġgoods": 1929,
      "Ġsports": 1930,
      "Ġhonest": 1931,
      "Ġmine": 1932,
      "Ġproject": 1933,
      "Ġtickets": 1934,
      "Ġwindow": 1935,
      "Ġmag": 1936,
      "ĠTw": 1937,
      "Ġthousand": 1938,
      "Ġdog": 1939,
      "Ġgoes": 1940,
      "aces": 1941,
      "Ġsingle": 1942,
      "ĠZ": 1943,
      "Ġtem": 1944,
      "Ġfall": 1945,
      "ĠYork": 1946,
      "Ġann": 1947,
      "ĠLi": 1948,
      "Ġwhite": 1949,
      "ĠJack": 1950,
      "Ġdiscount": 1951,
      "Ġimpress": 1952,
      "ees": 1953,
      "ric": 1954,
      "ton": 1955,
      "Ġtreat": 1956,
      "Ġball": 1957,
      "ĠTa": 1958,
      "iron": 1959,
      "ashion": 1960,
      "Ġfront": 1961,
      "Ġtype": 1962,
      "ĠAbout": 1963,
      "Ġsound": 1964,
      "Ġphot": 1965,
      "Ġeyes": 1966,
      "rat": 1967,
      "Ġsister": 1968,
      "rent": 1969,
      "ĠTell": 1970,
      "ĠMom": 1971,
      "Ġansw": 1972,
      "Ġanyone": 1973,
      "Ġ50": 1974,
      "ĠChristmas": 1975,
      "pect": 1976,
      "ulations": 1977,
      "ung": 1978,
      "Ġaff": 1979,
      "Ġenv": 1980,
      "Ġsche": 1981,
      "Ġcountries": 1982,
      "Ġchoice": 1983,
      "itchen": 1984,
      "IB": 1985,
      "Ġdro": 1986,
      "ĠSp": 1987,
      "Ġstation": 1988,
      "Ġkitchen": 1989,
      "ĠRIB": 1990,
      "dule": 1991,
      "Ġrecently": 1992,
      "Ġtransfer": 1993,
      "Ġveget": 1994,
      "Ġtotal": 1995,
      "ĠMonday": 1996,
      "Ġstyle": 1997,
      "Ġgener": 1998,
      "con": 1999,
      "Ġwants": 2000,
      "Ġarr": 2001,
      "Ġadvice": 2002,
      "30": 2003,
      "sh": 2004,
      "Ġcup": 2005,
      "Ġ200": 2006,
      "Ġperform": 2007,
      "Ġpromot": 2008,
      "min": 2009,
      "Ġmail": 2010,
      "osp": 2011,
      "ables": 2012,
      "Ġbrother": 2013,
      "Ġmanage": 2014,
      "Ġdesign": 2015,
      "Ġtraining": 2016,
      "Ġkidding": 2017,
      "Ġsurpr": 2018,
      "Ġmention": 2019,
      "Ġgone": 2020,
      "ĠAh": 2021,
      "Ġsave": 2022,
      "Ġexpl": 2023,
      "Ġlovely": 2024,
      "Ġinstead": 2025,
      "Ġdirect": 2026,
      "Ġbuilding": 2027,
      "ĠPerhaps": 2028,
      "Ġopportun": 2029,
      "Ġstraight": 2030,
      "We": 2031,
      "Ġaut": 2032,
      "Ġmadam": 2033,
      "Ġworth": 2034,
      "Ġord": 2035,
      "Ġroad": 2036,
      "Ġinternet": 2037,
      "ĠSometimes": 2038,
      "Ġconvenient": 2039,
      "bs": 2040,
      "cent": 2041,
      "fort": 2042,
      "ium": 2043,
      "ken": 2044,
      "Ġfresh": 2045,
      "Ġshoes": 2046,
      "pped": 2047,
      "ountain": 2048,
      "Ġplanning": 2049,
      "rodu": 2050,
      "ption": 2051,
      "Ġleaving": 2052,
      "aby": 2053,
      "Ġhandle": 2054,
      "Ġwatching": 2055,
      "col": 2056,
      "Ġdouble": 2057,
      "ative": 2058,
      "ĠDad": 2059,
      "earch": 2060,
      "Ġfamous": 2061,
      "Ġcrazy": 2062,
      "har": 2063,
      "Ġarea": 2064,
      "Ġstock": 2065,
      "ĠMs": 2066,
      "Ġsoft": 2067,
      "ĠIntern": 2068,
      "Ġlucky": 2069,
      "Ġmedic": 2070,
      "med": 2071,
      "Ġtou": 2072,
      "Ġson": 2073,
      "Ġhist": 2074,
      "Ġneigh": 2075,
      "ters": 2076,
      "Ġsucc": 2077,
      "Ġlots": 2078,
      "Ġholiday": 2079,
      "Ġneighb": 2080,
      "Ġsuccess": 2081,
      "ral": 2082,
      "Ġsat": 2083,
      "Ġmid": 2084,
      "Ġben": 2085,
      "sib": 2086,
      "Ġcareful": 2087,
      "Ġdecision": 2088,
      "Ġpublic": 2089,
      "Ġwhether": 2090,
      "Ġschedule": 2091,
      "ped": 2092,
      "Ġsort": 2093,
      "edding": 2094,
      "hange": 2095,
      "Ġplans": 2096,
      "Ġdefinitely": 2097,
      "Ġlanguage": 2098,
      "Ġtown": 2099,
      "ency": 2100,
      "vern": 2101,
      "ĠRo": 2102,
      "Ġvar": 2103,
      "Ġapplic": 2104,
      "Ġpair": 2105,
      "Ġinvest": 2106,
      "Ġboard": 2107,
      "Ġexciting": 2108,
      "Ġcoun": 2109,
      "Ġstrong": 2110,
      "Ġpromise": 2111,
      "Ġlocal": 2112,
      "fast": 2113,
      "Ġsent": 2114,
      "Ġsoup": 2115,
      "Ġgrow": 2116,
      "Ġheav": 2117,
      "Ġequ": 2118,
      "ĠComp": 2119,
      "ĠBesides": 2120,
      "ately": 2121,
      "ĠPro": 2122,
      "Ġcontact": 2123,
      "oud": 2124,
      "Ġsense": 2125,
      "Ġlow": 2126,
      "Ġstep": 2127,
      "ĠLond": 2128,
      "Ġrecord": 2129,
      "Ġparticular": 2130,
      "ĠLondon": 2131,
      "bers": 2132,
      "Ġcat": 2133,
      "erve": 2134,
      "Ġbath": 2135,
      "eter": 2136,
      "Ġhig": 2137,
      "Ġheart": 2138,
      "ĠCl": 2139,
      "ants": 2140,
      "Ġhands": 2141,
      "Ġrunning": 2142,
      "Ġemployees": 2143,
      "Ġtaste": 2144,
      "ys": 2145,
      "Ġgames": 2146,
      "Ġitem": 2147,
      "Ġlibr": 2148,
      "Ġship": 2149,
      "ĠJim": 2150,
      "Ġshouldn": 2151,
      "Ġadvert": 2152,
      "ĠUS": 2153,
      "ĠShall": 2154,
      "rect": 2155,
      "Ġwedding": 2156,
      "uture": 2157,
      "Ġblue": 2158,
      "Ġstudent": 2159,
      "Ġstudents": 2160,
      "ugg": 2161,
      "Ġwall": 2162,
      "Ġmeat": 2163,
      "ĠWith": 2164,
      "Ġhu": 2165,
      "els": 2166,
      "Ġdecide": 2167,
      "Ġwondering": 2168,
      "Ġswe": 2169,
      "Ġcollect": 2170,
      "Ġbreakfast": 2171,
      "Ġfilm": 2172,
      "Ġelect": 2173,
      "hai": 2174,
      "Ġmist": 2175,
      "Ġfuture": 2176,
      "Ġdist": 2177,
      "Ġgift": 2178,
      "ots": 2179,
      "ĠThese": 2180,
      "ĠNe": 2181,
      "Ġamaz": 2182,
      "Ġtrad": 2183,
      "Ġdesk": 2184,
      "Ġnewsp": 2185,
      "Ġprofess": 2186,
      "Ġlibrary": 2187,
      "iving": 2188,
      "ze": 2189,
      "Ġfashion": 2190,
      "Ġdanc": 2191,
      "ĠAcc": 2192,
      "Ġintrodu": 2193,
      "Ġlonger": 2194,
      "Ġothers": 2195,
      "Ġquickly": 2196,
      "fortable": 2197,
      "me": 2198,
      "ories": 2199,
      "Ġfish": 2200,
      "Ġfair": 2201,
      "Ġoh": 2202,
      "Ġcann": 2203,
      "ĠDav": 2204,
      "Ġplaces": 2205,
      "Ġrooms": 2206,
      "ĠMrs": 2207,
      "Ġ25": 2208,
      "Ġdevelop": 2209,
      "Ġpriv": 2210,
      "gan": 2211,
      "land": 2212,
      "we": 2213,
      "Ġbaby": 2214,
      "ĠBill": 2215,
      "Ġquiet": 2216,
      "lfriend": 2217,
      "Ġteach": 2218,
      "ording": 2219,
      "Ġsecret": 2220,
      "Ġregular": 2221,
      "Ġstudying": 2222,
      "oking": 2223,
      "to": 2224,
      "Ġice": 2225,
      "Ġsong": 2226,
      "Ġfield": 2227,
      "rol": 2228,
      "Ġplenty": 2229,
      "Ġval": 2230,
      "Ġpercent": 2231,
      "rench": 2232,
      "Ġdeg": 2233,
      "Ġfootball": 2234,
      "Ġdepends": 2235,
      "Ġanswer": 2236,
      "Ġtouch": 2237,
      "ior": 2238,
      "mit": 2239,
      "more": 2240,
      "ĠBr": 2241,
      "cel": 2242,
      "apan": 2243,
      "ffect": 2244,
      "Ġdriving": 2245,
      "Ġgirlfriend": 2246,
      "Ġcamer": 2247,
      "Ġpicture": 2248,
      "Ġbenef": 2249,
      "aff": 2250,
      "even": 2251,
      "Ġdear": 2252,
      "isf": 2253,
      "ising": 2254,
      "Ġhor": 2255,
      "Ġeffect": 2256,
      "Ġclock": 2257,
      "Ġmod": 2258,
      "itting": 2259,
      "Ġbrand": 2260,
      "Ġclasses": 2261,
      "Ġguys": 2262,
      "Ġmagaz": 2263,
      "Ġenviron": 2264,
      "Ġamazing": 2265,
      "What": 2266,
      "Ġfurn": 2267,
      "ĠTr": 2268,
      "sel": 2269,
      "Ġhit": 2270,
      "ĠSund": 2271,
      "Ġgovern": 2272,
      "ache": 2273,
      "ongrat": 2274,
      "Ġcompan": 2275,
      "ĠJapan": 2276,
      "Ġexchange": 2277,
      "Ġimpro": 2278,
      "Ġleg": 2279,
      "Ġeduc": 2280,
      "Ġafford": 2281,
      "Ġheavy": 2282,
      "Ġenvironment": 2283,
      "Ġfa": 2284,
      "Ġlat": 2285,
      "ĠFrench": 2286,
      "Ġusing": 2287,
      "Ġeng": 2288,
      "Ġguest": 2289,
      "ĠNothing": 2290,
      "Ġattention": 2291,
      "Ġexcited": 2292,
      "Ġexample": 2293,
      "Ġpiece": 2294,
      "nect": 2295,
      "son": 2296,
      "Ġsand": 2297,
      "Ġland": 2298,
      "Ġnerv": 2299,
      "Ġnecess": 2300,
      "Ġasking": 2301,
      "ĠPeople": 2302,
      "Ġcover": 2303,
      "Ġcheap": 2304,
      "Ġgrand": 2305,
      "Ġpolice": 2306,
      "ospital": 2307,
      "Ġcas": 2308,
      "Ġpot": 2309,
      "chn": 2310,
      "ĠMost": 2311,
      "ĠChe": 2312,
      "urs": 2313,
      "Ġsaying": 2314,
      "itional": 2315,
      "Ġgirls": 2316,
      "Ġcorrect": 2317,
      "ched": 2318,
      "Ġ/": 2319,
      "Ġseas": 2320,
      "eng": 2321,
      "Ġknew": 2322,
      "ĠGet": 2323,
      "Ġdifference": 2324,
      "Ġlaw": 2325,
      "Ġbedroom": 2326,
      "Ġsatisf": 2327,
      "ĠDavid": 2328,
      "fully": 2329,
      "Ġdiet": 2330,
      "ote": 2331,
      "ĠHmm": 2332,
      "ĠMany": 2333,
      "Ġseeing": 2334,
      "Ġcompet": 2335,
      "Ġresult": 2336,
      "Ġflow": 2337,
      "Ġblood": 2338,
      "Ġfinal": 2339,
      "Ġskin": 2340,
      "Ġfru": 2341,
      "Ġdelic": 2342,
      "Ġlearned": 2343,
      "Ġhurry": 2344,
      "Ġfigure": 2345,
      "Ġarrange": 2346,
      "ĠSunday": 2347,
      "Ġcompanies": 2348,
      "com": 2349,
      "mail": 2350,
      "Ġdam": 2351,
      "Ġdiv": 2352,
      "Ġdream": 2353,
      "vent": 2354,
      "Ġorgan": 2355,
      "iew": 2356,
      "Ġclub": 2357,
      "ude": 2358,
      "Ġpayment": 2359,
      "Ġcarry": 2360,
      "Ġglass": 2361,
      "Ġlearning": 2362,
      "Ġdaught": 2363,
      "Ġperformance": 2364,
      "ongratulations": 2365,
      "dle": 2366,
      "Ġz": 2367,
      "Ġcake": 2368,
      "Ġgreen": 2369,
      "Ġoper": 2370,
      "iced": 2371,
      "Ġworried": 2372,
      "Ġspace": 2373,
      "Ġclient": 2374,
      "Ġview": 2375,
      "Ġeating": 2376,
      "Ġenjoyed": 2377,
      "ĠAnyway": 2378,
      "Ġcurrent": 2379,
      "Ġswimming": 2380,
      "ĠTai": 2381,
      "cha": 2382,
      "den": 2383,
      "por": 2384,
      "ĠTues": 2385,
      "Ġbeer": 2386,
      "Ġhum": 2387,
      "Ġegg": 2388,
      "ĠMike": 2389,
      "Ġexcept": 2390,
      "raph": 2391,
      "akes": 2392,
      "Ġprices": 2393,
      "airs": 2394,
      "Ġsmoking": 2395,
      "Ġwords": 2396,
      "ĠTwo": 2397,
      "ĠTuesday": 2398,
      "Ġmountain": 2399,
      "Ġfre": 2400,
      "Ġhospital": 2401,
      "Ġstaff": 2402,
      "road": 2403,
      "Ġabsolutely": 2404,
      "Ġsol": 2405,
      "ĠGive": 2406,
      "Ġwriting": 2407,
      "Ġcontin": 2408,
      "Ġplane": 2409,
      "Ġrelations": 2410,
      "Ġcosts": 2411,
      "Ġcamp": 2412,
      "uggage": 2413,
      "selves": 2414,
      "dy": 2415,
      "ible": 2416,
      "mes": 2417,
      "Ġage": 2418,
      "ĠID": 2419,
      "Ġpat": 2420,
      "Ġluggage": 2421,
      "Ġgave": 2422,
      "ĠMar": 2423,
      "Ġwithin": 2424,
      "Ġnotice": 2425,
      "ored": 2426,
      "ppy": 2427,
      "Ġanymore": 2428,
      "aster": 2429,
      "Ġjobs": 2430,
      "Ġopin": 2431,
      "Ġsimple": 2432,
      "Ġdetails": 2433,
      "Ġapplication": 2434,
      "Ġgovernment": 2435,
      "How": 2436,
      "bo": 2437,
      "ma": 2438,
      "Ġsight": 2439,
      "ony": 2440,
      "Ġfly": 2441,
      "Ġstar": 2442,
      "Ġsomewhere": 2443,
      "Ġclim": 2444,
      "Ġassist": 2445,
      "conom": 2446,
      "Ġmedicine": 2447,
      "Ġhistory": 2448,
      "Ġcounter": 2449,
      "Ġsweet": 2450,
      "Ġcannot": 2451,
      "Ġnervous": 2452,
      "ah": 2453,
      "Ġri": 2454,
      "oub": 2455,
      "Ġsea": 2456,
      "ĠWas": 2457,
      "ically": 2458,
      "ĠGr": 2459,
      "Ġworks": 2460,
      "Ġride": 2461,
      "Ġ11": 2462,
      "Ġhealthy": 2463,
      "Ġwoman": 2464,
      "Ġcopy": 2465,
      "Ġvegetables": 2466,
      "Ġprivate": 2467,
      "Ġmot": 2468,
      "Ġmater": 2469,
      "Ġfif": 2470,
      "Ġcomfortable": 2471,
      "Ġtelling": 2472,
      "Ġresume": 2473,
      "Ġbuying": 2474,
      "Ġfinally": 2475,
      "Ġdrinks": 2476,
      "ancy": 2477,
      "phone": 2478,
      "Ġreceived": 2479,
      "Ġdaughter": 2480,
      "ches": 2481,
      "ele": 2482,
      "mb": 2483,
      "Ġinside": 2484,
      "Ġtechn": 2485,
      "Ġcooking": 2486,
      "Ġtaxi": 2487,
      "Ġprovide": 2488,
      "ĠCompany": 2489,
      "Ġhigher": 2490,
      "gy": 2491,
      "hind": 2492,
      "ned": 2493,
      "Ġyours": 2494,
      "ĠSu": 2495,
      "unk": 2496,
      "Ġgiven": 2497,
      "ertific": 2498,
      "ĠKe": 2499,
      "ĠEverything": 2500,
      "Ġconcert": 2501,
      "Ġincre": 2502,
      "Ġlatest": 2503,
      "tt": 2504,
      "ym": 2505,
      "ĠQ": 2506,
      "Ġmatch": 2507,
      "Ġbreat": 2508,
      "uth": 2509,
      "ĠSus": 2510,
      "Ġstress": 2511,
      "cks": 2512,
      "Ġ19": 2513,
      "Ġcars": 2514,
      "Ġearl": 2515,
      "Ġattract": 2516,
      "Ġairport": 2517,
      "Ġcorner": 2518,
      "Ġpackage": 2519,
      "cription": 2520,
      "ney": 2521,
      "Ġmessage": 2522,
      "Ġdocuments": 2523,
      "Ġitems": 2524,
      "ĠNext": 2525,
      "iod": 2526,
      "ware": 2527,
      "ina": 2528,
      "Ġnine": 2529,
      "ĠWang": 2530,
      "Ġbehind": 2531,
      "Ġeye": 2532,
      "ional": 2533,
      "Ġkill": 2534,
      "Ġconnect": 2535,
      "Ġloan": 2536,
      "Ġovertime": 2537,
      "ĠGoodbye": 2538,
      "Ġfamil": 2539,
      "Ġregist": 2540,
      "Ġsubway": 2541,
      "Ġmenu": 2542,
      "Ġparking": 2543,
      "Ġnecessary": 2544,
      "cial": 2545,
      "io": 2546,
      "ration": 2547,
      "rees": 2548,
      "ones": 2549,
      "Ġpan": 2550,
      "Ġpounds": 2551,
      "Ġob": 2552,
      "Ġhi": 2553,
      "ilities": 2554,
      "Ġproper": 2555,
      "Ġspent": 2556,
      "Ġround": 2557,
      "Ġperiod": 2558,
      "Ġlately": 2559,
      "Ġskills": 2560,
      "Ġlikes": 2561,
      "Ġcream": 2562,
      "icle": 2563,
      "Ġbeef": 2564,
      "Ġanim": 2565,
      "ĠIsn": 2566,
      "Ġcheaper": 2567,
      "Ġcourses": 2568,
      "Ġchocol": 2569,
      "Ġcustomers": 2570,
      "ĠInternet": 2571,
      "Ġmaterial": 2572,
      "ĠSusan": 2573,
      "Ġgym": 2574,
      "ĠHot": 2575,
      "ĠDan": 2576,
      "antastic": 2577,
      "amb": 2578,
      "Ġappro": 2579,
      "ĠSteven": 2580,
      "Ġtyp": 2581,
      "Ġwarm": 2582,
      "Ġcustomer": 2583,
      "Ġrequire": 2584,
      "Ġtemper": 2585,
      "Ġimprove": 2586,
      "And": 2587,
      "wan": 2588,
      "onna": 2589,
      "Ġfat": 2590,
      "Ġfift": 2591,
      "ĠDep": 2592,
      "anger": 2593,
      "Ġcontrol": 2594,
      "Ġpolicy": 2595,
      "Ġindust": 2596,
      "ortunately": 2597,
      "Ġnewspaper": 2598,
      "gage": 2599,
      "iter": 2600,
      "Ġfur": 2601,
      "Ġpen": 2602,
      "Ġlab": 2603,
      "Ġiss": 2604,
      "Ġur": 2605,
      "Ġstate": 2606,
      "ĠDay": 2607,
      "Ġsometime": 2608,
      "Ġhappens": 2609,
      "Ġbeach": 2610,
      "Ġpurcha": 2611,
      "Ġcompletely": 2612,
      "Ġdelivery": 2613,
      "Ġflowers": 2614,
      "Ġdelicious": 2615,
      "aw": 2616,
      "ale": 2617,
      "co": 2618,
      "che": 2619,
      "rest": 2620,
      "Ġbur": 2621,
      "ĠGod": 2622,
      "Ġfee": 2623,
      "ĠDidn": 2624,
      "ĠUniversity": 2625,
      "Ġbroke": 2626,
      "Ġsnow": 2627,
      "Ġmanagement": 2628,
      "Ġexplain": 2629,
      "ĠTaiwan": 2630,
      "Ġopinion": 2631,
      "--": 2632,
      "Ġcents": 2633,
      "Ġdead": 2634,
      "Ġju": 2635,
      "Ġshirt": 2636,
      "ump": 2637,
      "ared": 2638,
      "Ġbrought": 2639,
      "Ġagainst": 2640,
      "Ġsalad": 2641,
      "Ġslow": 2642,
      "Ġinternational": 2643,
      "hanghai": 2644,
      "ĠJane": 2645,
      "Ġfruit": 2646,
      "ien": 2647,
      "iqu": 2648,
      "Ġtall": 2649,
      "Ġgra": 2650,
      "Ġgonna": 2651,
      "ica": 2652,
      "ĠMark": 2653,
      "Ġwithd": 2654,
      "ĠBl": 2655,
      "Ġwilling": 2656,
      "Ġrid": 2657,
      "ĠThose": 2658,
      "Ġprin": 2659,
      "Ġaccident": 2660,
      "Ġdishes": 2661,
      "Ġcharac": 2662,
      "Ġdriver": 2663,
      "Ġcommun": 2664,
      "Ġhurt": 2665,
      "cribe": 2666,
      "Ġpractice": 2667,
      "Ġsqu": 2668,
      "Ġcap": 2669,
      "Ġbother": 2670,
      "Ġborrow": 2671,
      "iture": 2672,
      "Ġfire": 2673,
      "Ġwebs": 2674,
      "Ġworse": 2675,
      "Ġprocess": 2676,
      "Ġring": 2677,
      "Ġchecking": 2678,
      "ission": 2679,
      "Ġswea": 2680,
      "Ġfunny": 2681,
      "Ġcomplain": 2682,
      "Ġpictures": 2683,
      "Ġchanged": 2684,
      "Ġliked": 2685,
      "Ġtelephone": 2686,
      "ursday": 2687,
      "So": 2688,
      "Ġthrow": 2689,
      "ĠâĢĿ": 2690,
      "ĠOr": 2691,
      "ĠMake": 2692,
      "Ġalright": 2693,
      "essert": 2694,
      "Ġ18": 2695,
      "Ġtruth": 2696,
      "Ġremind": 2697,
      "Ġterms": 2698,
      "Ġthird": 2699,
      "Ġopportunity": 2700,
      "Ġwithdraw": 2701,
      "bit": 2702,
      "hy": 2703,
      "iar": 2704,
      "nis": 2705,
      "Ġcele": 2706,
      "Ġdessert": 2707,
      "lex": 2708,
      "Ġabroad": 2709,
      "ope": 2710,
      "Ġtwice": 2711,
      "Ġprint": 2712,
      "ference": 2713,
      "Ġbooked": 2714,
      "Ġcards": 2715,
      "Ġsett": 2716,
      "Ġenter": 2717,
      "Ġcelebr": 2718,
      "let": 2719,
      "set": 2720,
      "Ġmill": 2721,
      "estern": 2722,
      "Ġhoney": 2723,
      "Ġhung": 2724,
      "illy": 2725,
      "ĠMic": 2726,
      "Ġmoved": 2727,
      "Ġtrade": 2728,
      "Ġpaying": 2729,
      "mediate": 2730,
      "Ġmiddle": 2731,
      "Ġcamera": 2732,
      "Ġeducation": 2733,
      "Ġrelationship": 2734,
      "Ġearlier": 2735,
      "unt": 2736,
      "Ġill": 2737,
      "Ġsil": 2738,
      "rew": 2739,
      "Ġdark": 2740,
      "Ġgar": 2741,
      "Ġhang": 2742,
      "ution": 2743,
      "ĠShanghai": 2744,
      "ĠCongratulations": 2745,
      "Ġsection": 2746,
      "Ġalone": 2747,
      "aged": 2748,
      "Ġideas": 2749,
      "ĠUm": 2750,
      "Ġsupport": 2751,
      "Ġservices": 2752,
      "Ġ40": 2753,
      "Ġbottle": 2754,
      "Ġresults": 2755,
      "Ġchocolate": 2756,
      "Ġfurther": 2757,
      "five": 2758,
      "hib": 2759,
      "uro": 2760,
      "Ġbody": 2761,
      "Ġdry": 2762,
      "Ġlic": 2763,
      "Ġoil": 2764,
      "Ġocc": 2765,
      "Ġnatur": 2766,
      "Ġredu": 2767,
      "ĠBrown": 2768,
      "pping": 2769,
      "Ġspring": 2770,
      "ĠJen": 2771,
      "ĠThursday": 2772,
      "Ġimmediate": 2773,
      "Ġturned": 2774,
      "ology": 2775,
      "Ġfurniture": 2776,
      "Ġseason": 2777,
      "Ġfifteen": 2778,
      "50": 2779,
      "bed": 2780,
      "Ġways": 2781,
      "Ġdish": 2782,
      "Ġpoll": 2783,
      "Ġgas": 2784,
      "eag": 2785,
      "ĠYuan": 2786,
      "ĠAm": 2787,
      "ĠRem": 2788,
      "Ġquit": 2789,
      "Ġshare": 2790,
      "ograph": 2791,
      "Ġwomen": 2792,
      "Ġresponsible": 2793,
      "Ġboring": 2794,
      "Ġpressure": 2795,
      "Ġdegree": 2796,
      "ĠHotel": 2797,
      "go": 2798,
      "itive": 2799,
      "Ġpity": 2800,
      "Ġpull": 2801,
      "Ġeconom": 2802,
      "Ġstick": 2803,
      "Ġstory": 2804,
      "Ġspeed": 2805,
      "Ġrush": 2806,
      "Ġroll": 2807,
      "Ġimag": 2808,
      "Ġkept": 2809,
      "Ġchecked": 2810,
      "Ġunf": 2811,
      "ips": 2812,
      "Ġblock": 2813,
      "ĠOnly": 2814,
      "Ġtennis": 2815,
      "Ġcommon": 2816,
      "Ġbroken": 2817,
      "Ġbeginning": 2818,
      "Ġintroduce": 2819,
      "If": 2820,
      "oc": 2821,
      "oke": 2822,
      "ĠWor": 2823,
      "idence": 2824,
      "ĠAd": 2825,
      "imum": 2826,
      "Ġsemes": 2827,
      "ified": 2828,
      "Ġnote": 2829,
      "ured": 2830,
      "Ġrout": 2831,
      "ĠWhite": 2832,
      "Ġlead": 2833,
      "Ġplayer": 2834,
      "Ġfinanc": 2835,
      "Ġactiv": 2836,
      "Ġstaying": 2837,
      "ival": 2838,
      "Ġdrop": 2839,
      "Ġpromotion": 2840,
      "ĠRoom": 2841,
      "He": 2842,
      "XX": 2843,
      "pri": 2844,
      "vin": 2845,
      "vious": 2846,
      "Ġcult": 2847,
      "Ġsold": 2848,
      "Ġsho": 2849,
      "ĠLike": 2850,
      "ĠPeter": 2851,
      "Ġcoat": 2852,
      "Ġmoving": 2853,
      "Ġflat": 2854,
      "Ġsmell": 2855,
      "Ġaccording": 2856,
      "Ġcolleag": 2857,
      "Ġmilk": 2858,
      "Ġdancing": 2859,
      "Ġjuice": 2860,
      "Ġhungry": 2861,
      "Ġsemester": 2862,
      "over": 2863,
      "oice": 2864,
      "ination": 2865,
      "Ġchat": 2866,
      "Ġbal": 2867,
      "Ġfight": 2868,
      "Ġfund": 2869,
      "Ġdoub": 2870,
      "ĠAust": 2871,
      "ĠMa": 2872,
      "Ġcol": 2873,
      "une": 2874,
      "Ġsmart": 2875,
      "apers": 2876,
      "ĠStreet": 2877,
      "Ġmissed": 2878,
      "Ġsitu": 2879,
      "Ġsubject": 2880,
      "Ġallowed": 2881,
      "Ġeasier": 2882,
      "Ġfifty": 2883,
      "book": 2884,
      "sc": 2885,
      "Ġwast": 2886,
      "Ġwalking": 2887,
      "Ġcertain": 2888,
      "Ġfail": 2889,
      "Ġdra": 2890,
      "Ġhob": 2891,
      "ĠCar": 2892,
      "ĠLast": 2893,
      "used": 2894,
      "Ġanywhere": 2895,
      "ules": 2896,
      "ĠGu": 2897,
      "Ġspicy": 2898,
      "ĠPa": 2899,
      "arden": 2900,
      "Ġclos": 2901,
      "ists": 2902,
      "ized": 2903,
      "ĠExactly": 2904,
      "Ġcareer": 2905,
      "Ġbags": 2906,
      "Ġconcer": 2907,
      "Ġarrive": 2908,
      "Ġeasily": 2909,
      "gest": 2910,
      "val": 2911,
      "Ġest": 2912,
      "Ġwat": 2913,
      "Ġfantastic": 2914,
      "ishing": 2915,
      "ĠHong": 2916,
      "ĠDe": 2917,
      "ĠBank": 2918,
      "ilt": 2919,
      "Ġlooked": 2920,
      "Ġquar": 2921,
      "ĠHappy": 2922,
      "Ġstarting": 2923,
      "Ġscen": 2924,
      "ĠStates": 2925,
      "Ġdrinking": 2926,
      "Ġcharg": 2927,
      "Ġinvol": 2928,
      "Ġbread": 2929,
      "wards": 2930,
      "Ġexpected": 2931,
      "Ġconfirm": 2932,
      "Ġconditions": 2933,
      "Ġmotor": 2934,
      "friend": 2935,
      "ixt": 2936,
      "kes": 2937,
      "ket": 2938,
      "li": 2939,
      "nel": 2940,
      "Ġcrow": 2941,
      "Ġdraw": 2942,
      "Ġlower": 2943,
      "Ġgiving": 2944,
      "oof": 2945,
      "ute": 2946,
      "ĠNever": 2947,
      "ĠEven": 2948,
      "Ġ16": 2949,
      "Ġeverybody": 2950,
      "izz": 2951,
      "ĠShould": 2952,
      "Ġshipment": 2953,
      "Ġmistake": 2954,
      "Ġtemperature": 2955,
      "Ġcrowd": 2956,
      "gar": 2957,
      "gent": 2958,
      "sm": 2959,
      "Ġcal": 2960,
      "Ġcig": 2961,
      "Ġcell": 2962,
      "orn": 2963,
      "orge": 2964,
      "Ġfac": 2965,
      "arant": 2966,
      "ĠItal": 2967,
      "ĠLin": 2968,
      "Ġprop": 2969,
      "Ġspare": 2970,
      "ĠEm": 2971,
      "ĠEuro": 2972,
      "ĠPark": 2973,
      "Ġoffic": 2974,
      "Ġnose": 2975,
      "action": 2976,
      "ances": 2977,
      "Ġcaught": 2978,
      "Ġinvite": 2979,
      "iety": 2980,
      "Ġseats": 2981,
      "Ġmiles": 2982,
      "Ġprepared": 2983,
      "Ġneighbor": 2984,
      "Ġwebsite": 2985,
      "gain": 2986,
      "oid": 2987,
      "Ġdut": 2988,
      "Ġforty": 2989,
      "lect": 2990,
      "ĠHis": 2991,
      "ĠAr": 2992,
      "adays": 2993,
      "Ġknows": 2994,
      "elt": 2995,
      "ĠJul": 2996,
      "Ġvide": 2997,
      "Ġsafe": 2998,
      "Ġhomework": 2999,
      "Ġchall": 3000,
      "Ġnights": 3001,
      "Ġraise": 3002,
      "Ġmarri": 3003,
      "Ġstandard": 3004,
      "board": 3005,
      "ĠAustral": 3006,
      "aim": 3007,
      "de": 3008,
      "nes": 3009,
      "Ġfare": 3010,
      "anna": 3011,
      "Ġnet": 3012,
      "ĠâĢľ": 3013,
      "ĠSince": 3014,
      "Ġsteak": 3015,
      "ĠMan": 3016,
      "ĠMadam": 3017,
      "Ġnoticed": 3018,
      "ĠHowever": 3019,
      "Ġ500": 3020,
      "Ġdeep": 3021,
      "Ġfactory": 3022,
      "Ġresponsib": 3023,
      "Ġfault": 3024,
      "ĠPaul": 3025,
      "ks": 3026,
      "the": 3027,
      "uct": 3028,
      "ying": 3029,
      "zen": 3030,
      "Ġtie": 3031,
      "Ġbon": 3032,
      "Ġband": 3033,
      "Ġpe": 3034,
      "Ġgives": 3035,
      "Ġnon": 3036,
      "ĠOly": 3037,
      "Ġang": 3038,
      "Ġjour": 3039,
      "Ġbud": 3040,
      "Ġcalls": 3041,
      "Ġsaving": 3042,
      "Ġperhaps": 3043,
      "Ġdollar": 3044,
      "Ġapolog": 3045,
      "ground": 3046,
      "Ġinstru": 3047,
      "ĠEveryone": 3048,
      "Ġlights": 3049,
      "Ġsmoke": 3050,
      "Ġincluded": 3051,
      "Ġboxes": 3052,
      "Ġadvertise": 3053,
      "Ġdivor": 3054,
      "ertificate": 3055,
      "Ġincrease": 3056,
      "Ġanimals": 3057,
      "ĠOlymp": 3058,
      "app": 3059,
      "read": 3060,
      "ĠInd": 3061,
      "Ġbra": 3062,
      "Ġpoor": 3063,
      "Ġnorm": 3064,
      "ĠHoney": 3065,
      "irts": 3066,
      "ĠGreen": 3067,
      "Ġneeded": 3068,
      "Ġarm": 3069,
      "ĠUh": 3070,
      "Ġhoping": 3071,
      "ĠAnn": 3072,
      "Ġshows": 3073,
      "Ġpassed": 3074,
      "Ġexpecting": 3075,
      "Ġincluding": 3076,
      "Ġreasonable": 3077,
      "Ġindustry": 3078,
      "Ġlicense": 3079,
      "ĠRemember": 3080,
      "Ġdoubt": 3081,
      "hood": 3082,
      "vision": 3083,
      "wise": 3084,
      "Ġtur": 3085,
      "Ġdem": 3086,
      "anish": 3087,
      "ĠWed": 3088,
      "Ġstom": 3089,
      "Ġsuits": 3090,
      "ĠGer": 3091,
      "umn": 3092,
      "arett": 3093,
      "ĠThree": 3094,
      "Ġtrust": 3095,
      "Ġguarant": 3096,
      "Ġfinding": 3097,
      "ipe": 3098,
      "Ġcomputers": 3099,
      "Ġtransport": 3100,
      "ĠToday": 3101,
      "Ġmarketing": 3102,
      "Ġfaster": 3103,
      "Ġtotally": 3104,
      "Ġborn": 3105,
      "Ġbenefits": 3106,
      "Ġfamiliar": 3107,
      "Ġsweater": 3108,
      "Ġimmediately": 3109,
      "Ġfinancial": 3110,
      "nesday": 3111,
      "ĠWednesday": 3112,
      "Thank": 3113,
      "ole": 3114,
      "tain": 3115,
      "Ġdue": 3116,
      "Ġdanger": 3117,
      "ises": 3118,
      "ley": 3119,
      "Ġexhib": 3120,
      "Ġrice": 3121,
      "Ġrules": 3122,
      "Ġexpress": 3123,
      "Ġscore": 3124,
      "Ġvisa": 3125,
      "ĠUnited": 3126,
      "ĠAbsolutely": 3127,
      "They": 3128,
      "Ġmembers": 3129,
      "Ġbathroom": 3130,
      "Ġtraditional": 3131,
      "Ġeggs": 3132,
      "Ġnatural": 3133,
      "That": 3134,
      "off": 3135,
      "Ġtough": 3136,
      "Ġmis": 3137,
      "Ġmood": 3138,
      "Ġfelt": 3139,
      "Ġdad": 3140,
      "vered": 3141,
      "ĠâĢĶ": 3142,
      "ooper": 3143,
      "Ġhous": 3144,
      "ĠBet": 3145,
      "urity": 3146,
      "Ġwhatever": 3147,
      "estival": 3148,
      "Ġspot": 3149,
      "Ġcovered": 3150,
      "Ġrad": 3151,
      "Ġhelpful": 3152,
      "Ġresearch": 3153,
      "Ġinspect": 3154,
      "ployment": 3155,
      "Ġbaggage": 3156,
      "Ġinclude": 3157,
      "Ġpieces": 3158,
      "Ġpaint": 3159,
      "Ġcenter": 3160,
      "Ġsuccessful": 3161,
      "Ġengine": 3162,
      "Ġpurchase": 3163,
      "Ġcolleagues": 3164,
      "Ġvideo": 3165,
      "light": 3166,
      "ron": 3167,
      "oun": 3168,
      "Ġwake": 3169,
      "Ġweak": 3170,
      "Ġbat": 3171,
      "vell": 3172,
      "ĠYear": 3173,
      "ĠHar": 3174,
      "ĠSay": 3175,
      "ĠSar": 3176,
      "rib": 3177,
      "ĠOff": 3178,
      "ĠMac": 3179,
      "iring": 3180,
      "Ġkil": 3181,
      "Ġwash": 3182,
      "Ġwashing": 3183,
      "Ġupset": 3184,
      "Ġenc": 3185,
      "Ġhimself": 3186,
      "Ġprot": 3187,
      "Ġflu": 3188,
      "Ġearth": 3189,
      "Ġlaund": 3190,
      "Ġbasket": 3191,
      "Ġgraduate": 3192,
      "ĠSpanish": 3193,
      "Ġguests": 3194,
      "Ġclients": 3195,
      "Ġcigarett": 3196,
      "lo": 3197,
      "ply": 3198,
      "ĠX": 3199,
      "Ġtill": 3200,
      "hand": 3201,
      "erry": 3202,
      "Ġgarden": 3203,
      "alent": 3204,
      "Ġcancel": 3205,
      "ĠBar": 3206,
      "ilar": 3207,
      "ĠFrom": 3208,
      "Ġhelping": 3209,
      "ĠRob": 3210,
      "Ġmoder": 3211,
      "Ġcheese": 3212,
      "Ġhasn": 3213,
      "Ġkeeps": 3214,
      "Ġexperien": 3215,
      "ĠAlso": 3216,
      "Ġformal": 3217,
      "Ġpleasant": 3218,
      "Ġbottom": 3219,
      "Ġmeals": 3220,
      "Ġdeliver": 3221,
      "Ġgeneral": 3222,
      "Ġsurprised": 3223,
      "Ġprofessional": 3224,
      "Ġsecretary": 3225,
      "ĠKeep": 3226,
      "Ġwaste": 3227,
      "Ġmarriage": 3228,
      "Ġbonus": 3229,
      "Ġapologize": 3230,
      "Ġet": 3231,
      "Ġtight": 3232,
      "ined": 3233,
      "Ġsitting": 3234,
      "Ġcart": 3235,
      "orth": 3236,
      "Ġfax": 3237,
      "Ġport": 3238,
      "Ġpower": 3239,
      "ĠMmm": 3240,
      "Ġant": 3241,
      "Ġnegot": 3242,
      "Ġknowled": 3243,
      "itten": 3244,
      "Ġleaves": 3245,
      "Ġstarts": 3246,
      "Ġdisapp": 3247,
      "Ġplayed": 3248,
      "Ġchamp": 3249,
      "Ġground": 3250,
      "Ġgroup": 3251,
      "Ġagreement": 3252,
      "Ġadvance": 3253,
      "Ġtraveling": 3254,
      "Ġpainting": 3255,
      "Ġmagazine": 3256,
      "Ġcontinue": 3257,
      "Ġsituation": 3258,
      "Ġlaundry": 3259,
      "bing": 3260,
      "iam": 3261,
      "Ġsearch": 3262,
      "Ġmix": 3263,
      "Ġcreat": 3264,
      "Ġcause": 3265,
      "Ġbri": 3266,
      "Ġbright": 3267,
      "Ġpool": 3268,
      "vey": 3269,
      "Ġnut": 3270,
      "Ġlives": 3271,
      "Ġneck": 3272,
      "Ġexcuse": 3273,
      "ĠPC": 3274,
      "ĠPar": 3275,
      "Ġrich": 3276,
      "Ġener": 3277,
      "Ġbuilt": 3278,
      "itted": 3279,
      "Ġuseful": 3280,
      "Ġfoods": 3281,
      "Ġbigger": 3282,
      "Ġkeeping": 3283,
      "Ġschools": 3284,
      "Ġinvited": 3285,
      "Ġtext": 3286,
      "Ġsuggestions": 3287,
      "Ġlevel": 3288,
      "Ġboyfriend": 3289,
      "Ġtelevision": 3290,
      "Ġdocument": 3291,
      "Ġimpressed": 3292,
      "Ġsoftware": 3293,
      "Ġattractive": 3294,
      "ĠJenny": 3295,
      "izza": 3296,
      "cer": 3297,
      "ires": 3298,
      "night": 3299,
      "uce": 3300,
      "Ġwra": 3301,
      "Ġfried": 3302,
      "ison": 3303,
      "Ġren": 3304,
      "ĠHu": 3305,
      "ĠHer": 3306,
      "ĠCor": 3307,
      "Ġability": 3308,
      "Ġcock": 3309,
      "ĠCanad": 3310,
      "Ġ24": 3311,
      "Ġreserve": 3312,
      "Ġshape": 3313,
      "Ġdescribe": 3314,
      "Ġnearly": 3315,
      "Ġcolors": 3316,
      "Ġlistening": 3317,
      "Ġsurprise": 3318,
      "ĠAccount": 3319,
      "Ġcampus": 3320,
      "Ġangry": 3321,
      "market": 3322,
      "Ġ:": 3323,
      "Ġrom": 3324,
      "Ġach": 3325,
      "Ġtow": 3326,
      "Ġbow": 3327,
      "Ġbeat": 3328,
      "Ġbase": 3329,
      "itude": 3330,
      "oming": 3331,
      "ĠApri": 3332,
      "Ġstories": 3333,
      "ivered": 3334,
      "Ġsport": 3335,
      "ĠEn": 3336,
      "ĠPre": 3337,
      "acks": 3338,
      "Ġnowadays": 3339,
      "ĠRe": 3340,
      "ĠOnce": 3341,
      "Ġski": 3342,
      "Ġdelivered": 3343,
      "Ġprescription": 3344,
      "Ġmedium": 3345,
      "Ġstores": 3346,
      "Ġprograms": 3347,
      "Ġdogs": 3348,
      "Ġvarious": 3349,
      "Ġissue": 3350,
      "ĠApril": 3351,
      "Do": 3352,
      "aught": 3353,
      "ex": 3354,
      "fl": 3355,
      "gency": 3356,
      "Ġsen": 3357,
      "Ġmouth": 3358,
      "Ġcab": 3359,
      "Ġcooper": 3360,
      "Ġbike": 3361,
      "Ġpm": 3362,
      "Ġpet": 3363,
      "Ġowe": 3364,
      "ety": 3365,
      "atives": 3366,
      "Ġreview": 3367,
      "Ġreach": 3368,
      "Ġexport": 3369,
      "Ġamong": 3370,
      "Ġspo": 3371,
      "Ġru": 3372,
      "Ġusual": 3373,
      "Ġfeet": 3374,
      "Ġ14": 3375,
      "Ġrob": 3376,
      "Ġnoise": 3377,
      "Ġeveryday": 3378,
      "Ġguide": 3379,
      "Ġcarp": 3380,
      "Ġmonthly": 3381,
      "Ġ300": 3382,
      "Ġphys": 3383,
      "Ġdecl": 3384,
      "Ġstayed": 3385,
      "Ġspecific": 3386,
      "Ġvisiting": 3387,
      "Ġwearing": 3388,
      "Ġcleaning": 3389,
      "Ġmachines": 3390,
      "Ġsimply": 3391,
      "Ġarrived": 3392,
      "Ġgraduated": 3393,
      "Ġphotos": 3394,
      "Ġhuge": 3395,
      "ĠJapanese": 3396,
      "Ġimagine": 3397,
      "ĠEurope": 3398,
      "ĠAustralia": 3399,
      "ĠOffice": 3400,
      "Ġknowledge": 3401,
      "May": 3402,
      "iel": 3403,
      "rant": 3404,
      "Ġcross": 3405,
      "Ġfirm": 3406,
      "isk": 3407,
      "Ġloud": 3408,
      "ĠWon": 3409,
      "ĠTra": 3410,
      "arling": 3411,
      "Ġheld": 3412,
      "Ġcand": 3413,
      "ops": 3414,
      "Ġbye": 3415,
      "Ġwritten": 3416,
      "Ġfriendly": 3417,
      "Ġmostly": 3418,
      "Ġshower": 3419,
      "Ġolder": 3420,
      "Ġserve": 3421,
      "Ġretire": 3422,
      "Ġnearby": 3423,
      "Ġheadache": 3424,
      "ĠQu": 3425,
      "Ġurgent": 3426,
      "Ġcommunic": 3427,
      "ls": 3428,
      "ners": 3429,
      "ror": 3430,
      "Ġsixt": 3431,
      "Ġwood": 3432,
      "ering": 3433,
      "Ġfile": 3434,
      "Ġdest": 3435,
      "Ġlos": 3436,
      "idge": 3437,
      "Ġev": 3438,
      "ĠAir": 3439,
      "ĠCent": 3440,
      "Ġplastic": 3441,
      "ify": 3442,
      "Ġsugar": 3443,
      "ĠLu": 3444,
      "Ġclaim": 3445,
      "Ġhelps": 3446,
      "Ġload": 3447,
      "ellow": 3448,
      "aking": 3449,
      "Ġovers": 3450,
      "Ġbuses": 3451,
      "Ġeverywhere": 3452,
      "employment": 3453,
      "Ġappet": 3454,
      "Ġadm": 3455,
      "ptions": 3456,
      "Ġharder": 3457,
      "place": 3458,
      "rency": 3459,
      "upid": 3460,
      "Ġunderstanding": 3461,
      "Ġ80": 3462,
      "Ġfilms": 3463,
      "ĠTomorrow": 3464,
      "Ġrefund": 3465,
      "Ġdetail": 3466,
      "Ġequip": 3467,
      "Ġmagazines": 3468,
      "Ġcrowded": 3469,
      "BA": 3470,
      "iation": 3471,
      "vis": 3472,
      "Ġwanna": 3473,
      "Ġcir": 3474,
      "Ġcere": 3475,
      "Ġtor": 3476,
      "Ġbrown": 3477,
      "ĠTry": 3478,
      "ĠHold": 3479,
      "ĠSec": 3480,
      "rible": 3481,
      "Ġstam": 3482,
      "irty": 3483,
      "ĠCal": 3484,
      "Ġjam": 3485,
      "ĠEl": 3486,
      "Ġcomplic": 3487,
      "Ġconference": 3488,
      "Ġhelped": 3489,
      "Ġscared": 3490,
      "Ġhardly": 3491,
      "Ġbiggest": 3492,
      "Ġacross": 3493,
      "Ġrespect": 3494,
      "Ġpoints": 3495,
      "Ġopportunities": 3496,
      "Ġhuh": 3497,
      "Ġmodel": 3498,
      "Ġsandw": 3499,
      "Ġhuman": 3500,
      "Ġassistant": 3501,
      "Ġmaterials": 3502,
      "Ġcelebrate": 3503,
      "Ġmillion": 3504,
      "Ġwatched": 3505,
      "Ġinvolved": 3506,
      "Ġbudget": 3507,
      "Can": 3508,
      "bec": 3509,
      "ds": 3510,
      "uri": 3511,
      "Ġ0": 3512,
      "Ġmap": 3513,
      "Ġcable": 3514,
      "Ġcities": 3515,
      "Ġban": 3516,
      "itation": 3517,
      "Ġnational": 3518,
      "ownt": 3519,
      "seum": 3520,
      "Ġeff": 3521,
      "ĠMore": 3522,
      "Ġkick": 3523,
      "ĠWhatever": 3524,
      "Ġjo": 3525,
      "pper": 3526,
      "Ġorig": 3527,
      "Ġmuseum": 3528,
      "Ġourselves": 3529,
      "acket": 3530,
      "Ġfees": 3531,
      "Ġ13": 3532,
      "Ġagre": 3533,
      "Ġparts": 3534,
      "ĠKong": 3535,
      "Ġtalked": 3536,
      "Ġmarry": 3537,
      "Ġstrict": 3538,
      "Ġstrange": 3539,
      "Ġsuitable": 3540,
      "Ġdirector": 3541,
      "Ġbargain": 3542,
      "Ġsupermarket": 3543,
      "Ġvalue": 3544,
      "Ġsquare": 3545,
      "Ġactivities": 3546,
      "Ġstomach": 3547,
      "Ġmodern": 3548,
      "len": 3549,
      "men": 3550,
      "te": 3551,
      "Ġtree": 3552,
      "Ġsilly": 3553,
      "hael": 3554,
      "Ġmark": 3555,
      "erved": 3556,
      "orter": 3557,
      "Ġdig": 3558,
      "Ġdownt": 3559,
      "Ġnob": 3560,
      "oting": 3561,
      "Ġheat": 3562,
      "Ġeffic": 3563,
      "ential": 3564,
      "Ġstre": 3565,
      "Ġabs": 3566,
      "urch": 3567,
      "Ġfever": 3568,
      "Ġloves": 3569,
      "Ġunemployment": 3570,
      "Ġscience": 3571,
      "Ġdecor": 3572,
      "Ġmath": 3573,
      "Ġproduction": 3574,
      "iction": 3575,
      "Ġopening": 3576,
      "Ġsmaller": 3577,
      "Ġadvant": 3578,
      "Ġwarrant": 3579,
      "ĠMonica": 3580,
      "Ġlanguages": 3581,
      "Ġchanges": 3582,
      "Ġcomplete": 3583,
      "Ġfixed": 3584,
      "Ġautom": 3585,
      "Ġorders": 3586,
      "Ġelectric": 3587,
      "Ġdamage": 3588,
      "ĠItalian": 3589,
      "Ġduty": 3590,
      "Ġdangerous": 3591,
      "Ġorigin": 3592,
      "Ġnobody": 3593,
      "sing": 3594,
      "tle": 3595,
      "ued": 3596,
      "Ġsad": 3597,
      "Ġsam": 3598,
      "Ġmeas": 3599,
      "Ġtoast": 3600,
      "Ġbear": 3601,
      "itch": 3602,
      "Ġpush": 3603,
      "Ġliter": 3604,
      "eth": 3605,
      "stairs": 3606,
      "Ġhire": 3607,
      "ĠSep": 3608,
      "Ġstri": 3609,
      "irus": 3610,
      "Ġknown": 3611,
      "ĠList": 3612,
      "ĠDoctor": 3613,
      "Ġclosed": 3614,
      "Ġfell": 3615,
      "Ġsauce": 3616,
      "Ġfeels": 3617,
      "Ġuncle": 3618,
      "Ġpossib": 3619,
      "ples": 3620,
      "Ġnumbers": 3621,
      "Ġemail": 3622,
      "Ġproduce": 3623,
      "Ġpacking": 3624,
      "Ġsimilar": 3625,
      "Ġdaily": 3626,
      "ĠProf": 3627,
      "Ġguarantee": 3628,
      "Ġachieve": 3629,
      "case": 3630,
      "da": 3631,
      "dden": 3632,
      "mber": 3633,
      "nic": 3634,
      "inary": 3635,
      "rem": 3636,
      "Ġwet": 3637,
      "Ġbi": 3638,
      "Ġpic": 3639,
      "Ġpage": 3640,
      "ows": 3641,
      "Ġmeant": 3642,
      "Ġemer": 3643,
      "Ġlim": 3644,
      "Ġlimit": 3645,
      "ĠOct": 3646,
      "Ġstupid": 3647,
      "ĠCity": 3648,
      "ĠDr": 3649,
      "Ġsocial": 3650,
      "ifts": 3651,
      "Ġsudden": 3652,
      "ĠFin": 3653,
      "ĠRes": 3654,
      "Ġvoice": 3655,
      "Ġroses": 3656,
      "Ġads": 3657,
      "Ġminimum": 3658,
      "Ġpromised": 3659,
      "Ġavoid": 3660,
      "Ġcurrency": 3661,
      "Ġdirectly": 3662,
      "Ġordered": 3663,
      "ĠBrit": 3664,
      "Ġorganiz": 3665,
      "Ġregistered": 3666,
      "Ġcharacter": 3667,
      "Ġchalleng": 3668,
      "Ġradio": 3669,
      "Ġprotect": 3670,
      "Ġbasketball": 3671,
      "Ġcomplicated": 3672,
      "Ġdowntown": 3673,
      "Ġstreng": 3674,
      "uf": 3675,
      "Ġtend": 3676,
      "Ġpea": 3677,
      "Ġpian": 3678,
      "see": 3679,
      "Ġdozen": 3680,
      "ĠGe": 3681,
      "Ġvi": 3682,
      "Ġbackground": 3683,
      "Ġcarefully": 3684,
      "gging": 3685,
      "Ġregister": 3686,
      "ĠJoe": 3687,
      "Ġsurf": 3688,
      "Ġindeed": 3689,
      "Ġhurts": 3690,
      "Ġselling": 3691,
      "Ġlocated": 3692,
      "Ġyounger": 3693,
      "Ġcases": 3694,
      "Ġflying": 3695,
      "ĠGrand": 3696,
      "ĠDaniel": 3697,
      "Ġsavings": 3698,
      "Ġexhibition": 3699,
      "Ġencour": 3700,
      "load": 3701,
      "ĠParis": 3702,
      "ĠPretty": 3703,
      "ĠListen": 3704,
      "Would": 3705,
      "bar": 3706,
      "bly": 3707,
      "par": 3708,
      "ury": 3709,
      "Ġut": 3710,
      "Ġcertificate": 3711,
      "isa": 3712,
      "ane": 3713,
      "Ġpizza": 3714,
      "ster": 3715,
      "Ġgold": 3716,
      "ĠCur": 3717,
      "ached": 3718,
      "tery": 3719,
      "ĠLee": 3720,
      "ulous": 3721,
      "ards": 3722,
      "ober": 3723,
      "aker": 3724,
      "Ġvol": 3725,
      "Ġvote": 3726,
      "Ġages": 3727,
      "ptop": 3728,
      "Ġleather": 3729,
      "ape": 3730,
      "Ġaccounting": 3731,
      "Ġrare": 3732,
      "ĠAlice": 3733,
      "Ġcommission": 3734,
      "Ġseriously": 3735,
      "Ġcrit": 3736,
      "Ġassign": 3737,
      "Ġprepar": 3738,
      "Ġhorrible": 3739,
      "ĠCheck": 3740,
      "Ġsatisfied": 3741,
      "poration": 3742,
      "ique": 3743,
      "Ġcarpet": 3744,
      "ĠLucy": 3745,
      "There": 3746,
      "bies": 3747,
      "cing": 3748,
      "ipped": 3749,
      "lines": 3750,
      "ugh": 3751,
      "Ġsle": 3752,
      "Ġmall": 3753,
      "Ġcine": 3754,
      "Ġfully": 3755,
      "isle": 3756,
      "Ġhall": 3757,
      "iding": 3758,
      "Ġlif": 3759,
      "ĠOther": 3760,
      "Ġanc": 3761,
      "ĠWere": 3762,
      "aches": 3763,
      "ources": 3764,
      "ĠGot": 3765,
      "ĠPerson": 3766,
      "Ġran": 3767,
      "Ġchem": 3768,
      "Ġtrack": 3769,
      "Ġchurch": 3770,
      "Ġstudied": 3771,
      "Ġsuppl": 3772,
      "Ġpleased": 3773,
      "Ġlarger": 3774,
      "Ġmeters": 3775,
      "Ġterribly": 3776,
      "Ġbased": 3777,
      "Ġ150": 3778,
      "Ġawful": 3779,
      "Ġvariety": 3780,
      "ĠBlack": 3781,
      "ĠMichael": 3782,
      "Ġoccas": 3783,
      "Ġconcerned": 3784,
      "Ġrenew": 3785,
      "ĠCanada": 3786,
      "Ġoverseas": 3787,
      "ĠOctober": 3788,
      "cast": 3789,
      "hol": 3790,
      "my": 3791,
      "sp": 3792,
      "Ġble": 3793,
      "Ġfool": 3794,
      "Ġfeat": 3795,
      "Ġdial": 3796,
      "Ġdarling": 3797,
      "inger": 3798,
      "omas": 3799,
      "icles": 3800,
      "idays": 3801,
      "Ġgod": 3802,
      "ĠCool": 3803,
      "Ġsepar": 3804,
      "ado": 3805,
      "ĠBoth": 3806,
      "iff": 3807,
      "Ġshot": 3808,
      "though": 3809,
      "iling": 3810,
      "elve": 3811,
      "Ġconst": 3812,
      "Ġrock": 3813,
      "Ġsurely": 3814,
      "Ġarg": 3815,
      "Ġtravell": 3816,
      "Ġsched": 3817,
      "ension": 3818,
      "Ġboat": 3819,
      "Ġbeauty": 3820,
      "ception": 3821,
      "ĠFrank": 3822,
      "Ġ60": 3823,
      "Ġexpenses": 3824,
      "Ġemployee": 3825,
      "Ġsuggestion": 3826,
      "Ġelev": 3827,
      "Ġbasic": 3828,
      "Ġtastes": 3829,
      "Ġpresentation": 3830,
      "Ġaware": 3831,
      "hard": 3832,
      "together": 3833,
      "Ġsettled": 3834,
      "ĠGerman": 3835,
      "ĠSept": 3836,
      "ĠProfess": 3837,
      "Ġstrength": 3838,
      "25": 3839,
      "My": 3840,
      "uly": 3841,
      "xic": 3842,
      "year": 3843,
      "itor": 3844,
      "Ġpo": 3845,
      "oms": 3846,
      "Ġfort": 3847,
      "ĠHas": 3848,
      "ĠHope": 3849,
      "Ġlift": 3850,
      "ĠSouth": 3851,
      "riger": 3852,
      "ĠCon": 3853,
      "ĠBen": 3854,
      "Ġplus": 3855,
      "ctions": 3856,
      "Ġbutton": 3857,
      "Ġasleep": 3858,
      "Ġsomebody": 3859,
      "Ġcomb": 3860,
      "inda": 3861,
      "Ġrange": 3862,
      "ĠRose": 3863,
      "istic": 3864,
      "Ġgotten": 3865,
      "agne": 3866,
      "Ġarrest": 3867,
      "Ġ21": 3868,
      "Ġscreen": 3869,
      "ĠUs": 3870,
      "Ġaccounts": 3871,
      "Ġinviting": 3872,
      "Ġlived": 3873,
      "ĠFrance": 3874,
      "Ġlaugh": 3875,
      "Ġrealize": 3876,
      "Ġsurvey": 3877,
      "Ġexams": 3878,
      "Ġfiles": 3879,
      "Ġentertain": 3880,
      "Ġcute": 3881,
      "Ġ90": 3882,
      "Ġdirection": 3883,
      "Ġrefriger": 3884,
      "Ġaccepted": 3885,
      "Ġrequest": 3886,
      "Ġarticle": 3887,
      "Ġcentre": 3888,
      "Ġimpression": 3889,
      "Ġregistration": 3890,
      "ĠWorld": 3891,
      "Ġbalance": 3892,
      "Ġinspection": 3893,
      "Ġpicnic": 3894,
      "ĠSeptember": 3895,
      "45": 3896,
      "ald": 3897,
      "hold": 3898,
      "mates": 3899,
      "Ġtrees": 3900,
      "Ġwestern": 3901,
      "Ġcri": 3902,
      "isy": 3903,
      "Ġpapers": 3904,
      "Ġlay": 3905,
      "Ġgate": 3906,
      "aylor": 3907,
      "Ġforms": 3908,
      "Ġbell": 3909,
      "Ġhost": 3910,
      "ĠSam": 3911,
      "ird": 3912,
      "ĠCo": 3913,
      "Ġself": 3914,
      "ceed": 3915,
      "Ġnotes": 3916,
      "Ġshut": 3917,
      "indy": 3918,
      "using": 3919,
      "ĠGl": 3920,
      "ĠEr": 3921,
      "ossible": 3922,
      "ief": 3923,
      "icks": 3924,
      "Ġappear": 3925,
      "Ġaccess": 3926,
      "ĠExcellent": 3927,
      "play": 3928,
      "Ġevents": 3929,
      "Ġhighly": 3930,
      "Ġtrains": 3931,
      "ĠAmericans": 3932,
      "Ġchoices": 3933,
      "Ġdressed": 3934,
      "Ġincludes": 3935,
      "Ġletters": 3936,
      "ĠSomeone": 3937,
      "Ġprofit": 3938,
      "Ġholidays": 3939,
      "rupt": 3940,
      "Ġclearly": 3941,
      "Ġpotat": 3942,
      "Ġfrequ": 3943,
      "Ġbreath": 3944,
      "cohol": 3945,
      "Ġquarter": 3946,
      "ĠJulia": 3947,
      "Ġtransportation": 3948,
      "Ġcandid": 3949,
      "Ġtorn": 3950,
      "ĠGeorge": 3951,
      "ĠProfessor": 3952,
      "fortunately": 3953,
      "how": 3954,
      "Ġcry": 3955,
      "ites": 3956,
      "ism": 3957,
      "Ġgain": 3958,
      "ĠTaylor": 3959,
      "Ġbeha": 3960,
      "Ġhello": 3961,
      "ĠApp": 3962,
      "Ġlie": 3963,
      "Ġstuck": 3964,
      "ĠMorning": 3965,
      "ĠCindy": 3966,
      "Ġselect": 3967,
      "acy": 3968,
      "ĠBus": 3969,
      "Ġjump": 3970,
      "Ġplant": 3971,
      "Ġcode": 3972,
      "epend": 3973,
      "ardon": 3974,
      "Ġroast": 3975,
      "Ġnovel": 3976,
      "Ġtwelve": 3977,
      "ĠAren": 3978,
      "Ġapple": 3979,
      "Ġproud": 3980,
      "abl": 3981,
      "Ġparties": 3982,
      "efore": 3983,
      "Ġperf": 3984,
      "Ġident": 3985,
      "Ġbecoming": 3986,
      "Ġputting": 3987,
      "Ġdepress": 3988,
      "Ġpositive": 3989,
      "ĠEngland": 3990,
      "Ġactive": 3991,
      "Ġsecurity": 3992,
      "Ġsky": 3993,
      "ivid": 3994,
      "Ġopened": 3995,
      "Ġlaptop": 3996,
      "Ġdressing": 3997,
      "Ġbills": 3998,
      "Ġmedical": 3999,
      "ĠUnfortunately": 4000,
      "ĠMexic": 4001,
      "Ġrepair": 4002,
      "Ġ120": 4003,
      "Ġpersonality": 4004,
      "Ġfigures": 4005,
      "Ġwallet": 4006,
      "ĠWashing": 4007,
      "ĠDepartment": 4008,
      "Ġsilk": 4009,
      "ography": 4010,
      "Ġneighborhood": 4011,
      "Ġdisappoint": 4012,
      "ufact": 4013,
      "Ġcinema": 4014,
      "BC": 4015,
      "Th": 4016,
      "hou": 4017,
      "ians": 4018,
      "ipping": 4019,
      "law": 4020,
      "rated": 4021,
      "zz": 4022,
      "Ġaisle": 4023,
      "Ġsou": 4024,
      "Ġsouth": 4025,
      "Ġmas": 4026,
      "ero": 4027,
      "eral": 4028,
      "Ġbesides": 4029,
      "Ġfed": 4030,
      "Ġdum": 4031,
      "Ġpal": 4032,
      "Ġlad": 4033,
      "ĠTime": 4034,
      "att": 4035,
      "atic": 4036,
      "key": 4037,
      "verage": 4038,
      "term": 4039,
      "ĠBefore": 4040,
      "urse": 4041,
      "Ġexact": 4042,
      "ĠPh": 4043,
      "ĠPut": 4044,
      "ĠRic": 4045,
      "Ġlock": 4046,
      "Ġoffers": 4047,
      "Ġthemselves": 4048,
      "Ġnoon": 4049,
      "olen": 4050,
      "ager": 4051,
      "venue": 4052,
      "Ġprevious": 4053,
      "Ġmanufact": 4054,
      "mercial": 4055,
      "Ġchair": 4056,
      "Ġdrug": 4057,
      "Ġcontrib": 4058,
      "Ġacting": 4059,
      "Ġaction": 4060,
      "Ġattitude": 4061,
      "Ġskirt": 4062,
      "Ġstopped": 4063,
      "Ġpresident": 4064,
      "Ġrestaurants": 4065,
      "Ġstanding": 4066,
      "ĠPerfect": 4067,
      "Ġboarding": 4068,
      "ĠAccording": 4069,
      "Ġmountains": 4070,
      "Ġsolve": 4071,
      "Ġpatient": 4072,
      "Ġeconomy": 4073,
      "Ġnormal": 4074,
      "ĠSarah": 4075,
      "Ġequipment": 4076,
      "Ġagreed": 4077,
      "Ġpeace": 4078,
      "Ġelevator": 4079,
      "Ġrefrigerator": 4080,
      "Here": 4081,
      "cut": 4082,
      "ey": 4083,
      "rance": 4084,
      "Ġer": 4085,
      "Ġsides": 4086,
      "Ġbid": 4087,
      "Ġded": 4088,
      "Ġdied": 4089,
      "Ġpu": 4090,
      "Ġincome": 4091,
      "Ġthin": 4092,
      "oted": 4093,
      "Ġreception": 4094,
      "Ġareas": 4095,
      "ĠServ": 4096,
      "Ġste": 4097,
      "Ġgoal": 4098,
      "ĠBel": 4099,
      "Ġje": 4100,
      "Ġplum": 4101,
      "antic": 4102,
      "ama": 4103,
      "ĠLinda": 4104,
      "Ġgoodbye": 4105,
      "Ġorange": 4106,
      "ulation": 4107,
      "ĠJason": 4108,
      "ability": 4109,
      "Ġflav": 4110,
      "Ġweren": 4111,
      "Ġdisp": 4112,
      "Ġdepart": 4113,
      "Ġclassical": 4114,
      "ĠKing": 4115,
      "Ġadditional": 4116,
      "Ġended": 4117,
      "Ġmissing": 4118,
      "Ġsinging": 4119,
      "Ġperfectly": 4120,
      "Ġsmooth": 4121,
      "Ġbasis": 4122,
      "Ġveh": 4123,
      "Ġapplying": 4124,
      "Ġmessages": 4125,
      "Ġpurp": 4126,
      "ĠShow": 4127,
      "Ġcopies": 4128,
      "Ġrelaxing": 4129,
      "Ġimpressive": 4130,
      "ĠInternational": 4131,
      "Ġmistakes": 4132,
      "Ġdevelopment": 4133,
      "Ġsongs": 4134,
      "Ġlegal": 4135,
      "Ġjourney": 4136,
      "Ġdemand": 4137,
      "Ġchampagne": 4138,
      "Ġenergy": 4139,
      "Ġlosing": 4140,
      "seeing": 4141,
      "Ġviol": 4142,
      "Ġancient": 4143,
      "fety": 4144,
      "give": 4145,
      "house": 4146,
      "mony": 4147,
      "Ġmass": 4148,
      "Ġdat": 4149,
      "anch": 4150,
      "Ġlady": 4151,
      "ĠWall": 4152,
      "ĠWestern": 4153,
      "Ġreplace": 4154,
      "ĠABC": 4155,
      "rill": 4156,
      "Ġstorm": 4157,
      "Ġplat": 4158,
      "Ġshirts": 4159,
      "ĠPM": 4160,
      "ĠFo": 4161,
      "Ġcloth": 4162,
      "Ġ17": 4163,
      "Ġunit": 4164,
      "Ġplayers": 4165,
      "Ġshar": 4166,
      "Ġenjoying": 4167,
      "Ġfoc": 4168,
      "Ġmeetings": 4169,
      "Ġserved": 4170,
      "ĠFranc": 4171,
      "Ġdelay": 4172,
      "Ġimpossible": 4173,
      "Ġspending": 4174,
      "Ġinstall": 4175,
      "ification": 4176,
      "Ġindepend": 4177,
      "Ġsubs": 4178,
      "Ġseemed": 4179,
      "Ġconfident": 4180,
      "Ġchanging": 4181,
      "Ġkeys": 4182,
      "Ġrelaxed": 4183,
      "ĠZhang": 4184,
      "Ġrecords": 4185,
      "Ġadvertising": 4186,
      "Ġcharacters": 4187,
      "Ġculture": 4188,
      "Ġfailed": 4189,
      "Ġhobbies": 4190,
      "ĠQuite": 4191,
      "Ġsandwich": 4192,
      "ĠWashington": 4193,
      "10": 4194,
      "Is": 4195,
      "gress": 4196,
      "mate": 4197,
      "rate": 4198,
      "spect": 4199,
      "under": 4200,
      "Ġtail": 4201,
      "Ġtaught": 4202,
      "Ġcu": 4203,
      "erk": 4204,
      "Ġfishing": 4205,
      "Ġdom": 4206,
      "Ġlease": 4207,
      "Ġloss": 4208,
      "ĠChen": 4209,
      "Ġshy": 4210,
      "Ġbutter": 4211,
      "ural": 4212,
      "urry": 4213,
      "ĠHelen": 4214,
      "ĠLe": 4215,
      "uled": 4216,
      "Ġspl": 4217,
      "ĠJones": 4218,
      "ĠJune": 4219,
      "Ġlob": 4220,
      "ĠThomas": 4221,
      "Ġbucks": 4222,
      "Ġteams": 4223,
      "Ġshowing": 4224,
      "ealth": 4225,
      "Ġpale": 4226,
      "ĠStop": 4227,
      "ĠStud": 4228,
      "Ġears": 4229,
      "Ġrelig": 4230,
      "Ġstops": 4231,
      "Ġweekends": 4232,
      "Ġsurv": 4233,
      "Ġtraveler": 4234,
      "Ġtests": 4235,
      "Ġstyles": 4236,
      "Ġmember": 4237,
      "Ġannual": 4238,
      "Ġordinary": 4239,
      "ĠProbably": 4240,
      "Ġdegrees": 4241,
      "Ġclimate": 4242,
      "Ġconnection": 4243,
      "Ġtypes": 4244,
      "Ġrequirements": 4245,
      "Ġslowly": 4246,
      "Ġpollution": 4247,
      "Ġresponsibility": 4248,
      "ĠRobert": 4249,
      "Ġwrap": 4250,
      "Ġrule": 4251,
      "Ġdeclare": 4252,
      "Ġdigital": 4253,
      "Ġwarranty": 4254,
      "ĠUsually": 4255,
      "ĠRichard": 4256,
      "55": 4257,
      "Let": 4258,
      "ged": 4259,
      "iest": 4260,
      "mon": 4261,
      "Ġtalent": 4262,
      "Ġaud": 4263,
      "Ġaverage": 4264,
      "Ġwide": 4265,
      "Ġmad": 4266,
      "Ġmaster": 4267,
      "Ġcre": 4268,
      "Ġcous": 4269,
      "Ġtooth": 4270,
      "Ġfries": 4271,
      "Ġgifts": 4272,
      "ĠWind": 4273,
      "Ġinit": 4274,
      "alog": 4275,
      "ĠSa": 4276,
      "ĠSing": 4277,
      "ental": 4278,
      "Ġstolen": 4279,
      "ĠMc": 4280,
      "ĠMart": 4281,
      "ĠMum": 4282,
      "ĠColl": 4283,
      "ĠChar": 4284,
      "Ġabove": 4285,
      "Ġjoking": 4286,
      "amp": 4287,
      "ĠLo": 4288,
      "uses": 4289,
      "Ġalcohol": 4290,
      "ĠEach": 4291,
      "Ġconvers": 4292,
      "Ġmob": 4293,
      "Ġquant": 4294,
      "arent": 4295,
      "Ġoffices": 4296,
      "Ġchess": 4297,
      "Ġsafety": 4298,
      "Ġperm": 4299,
      "Ġdrunk": 4300,
      "Ġmax": 4301,
      "Ġremain": 4302,
      "Ġaccountant": 4303,
      "Ġinvitation": 4304,
      "Ġbrings": 4305,
      "Ġadded": 4306,
      "Ġlazy": 4307,
      "iversary": 4308,
      "Ġslip": 4309,
      "Ġdealing": 4310,
      "Ġincred": 4311,
      "Ġmemory": 4312,
      "Ġannoy": 4313,
      "Ġauth": 4314,
      "Ġinvestment": 4315,
      "Ġlegs": 4316,
      "ambling": 4317,
      "Ġtypical": 4318,
      "ĠDeposit": 4319,
      "Ġreduce": 4320,
      "going": 4321,
      "Ġdivorce": 4322,
      "Ġetc": 4323,
      "Ġbrief": 4324,
      "ĠPCC": 4325,
      "Ġemergency": 4326,
      "Ġoccasion": 4327,
      "20": 4328,
      "Could": 4329,
      "ai": 4330,
      "back": 4331,
      "bie": 4332,
      "just": 4333,
      "mother": 4334,
      "ram": 4335,
      "ted": 4336,
      "yd": 4337,
      "zing": 4338,
      "zhou": 4339,
      "Ġwild": 4340,
      "lla": 4341,
      "Ġdie": 4342,
      "Ġhabit": 4343,
      "ĠYep": 4344,
      "ĠSc": 4345,
      "ĠSally": 4346,
      "ĠSand": 4347,
      "ĠSue": 4348,
      "imate": 4349,
      "Ġstat": 4350,
      "Ġstraw": 4351,
      "roat": 4352,
      "Ġgolf": 4353,
      "ĠCD": 4354,
      "ĠDef": 4355,
      "Ġworst": 4356,
      "Ġspir": 4357,
      "asty": 4358,
      "ĠFair": 4359,
      "iece": 4360,
      "ĠJames": 4361,
      "Ġaffect": 4362,
      "aren": 4363,
      "istry": 4364,
      "Ġagency": 4365,
      "Ġnoisy": 4366,
      "Ġshelf": 4367,
      "agement": 4368,
      "Ġunits": 4369,
      "sian": 4370,
      "Ġdisplay": 4371,
      "Ġblow": 4372,
      "Ġmeaning": 4373,
      "ĠAnother": 4374,
      "Ġshowed": 4375,
      "Ġbadly": 4376,
      "Ġearn": 4377,
      "Ġrelated": 4378,
      "ĠLooks": 4379,
      "Ġfavour": 4380,
      "Ġinterviewer": 4381,
      "Ġfilled": 4382,
      "Ġseconds": 4383,
      "Ġqualified": 4384,
      "Ġentrance": 4385,
      "ĠLiu": 4386,
      "Ġglasses": 4387,
      "Ġsightseeing": 4388,
      "Ġlabor": 4389,
      "Ġhobby": 4390,
      "Ġcharges": 4391,
      "Ġpropos": 4392,
      "Ġcigarettes": 4393,
      "ĠSecond": 4394,
      "Ġmeasure": 4395,
      "remely": 4396,
      "Ġsuddenly": 4397,
      "Ġpiano": 4398,
      "Ġdisappointed": 4399,
      "Ġjeans": 4400,
      "ĠFrancis": 4401,
      "bits": 4402,
      "food": 4403,
      "hile": 4404,
      "iable": 4405,
      "ker": 4406,
      "nal": 4407,
      "ris": 4408,
      "rack": 4409,
      "Ġyellow": 4410,
      "Ġbite": 4411,
      "Ġfits": 4412,
      "Ġpound": 4413,
      "Ġnorth": 4414,
      "ĠTer": 4415,
      "ĠToo": 4416,
      "ĠTurn": 4417,
      "Ġthroat": 4418,
      "ĠHurry": 4419,
      "ĠAug": 4420,
      "alt": 4421,
      "ales": 4422,
      "ĠSpr": 4423,
      "Ġstea": 4424,
      "Ġanal": 4425,
      "ĠCard": 4426,
      "oods": 4427,
      "ĠBea": 4428,
      "Ġjum": 4429,
      "Ġsuff": 4430,
      "ĠLily": 4431,
      "Ġanytime": 4432,
      "ĠGen": 4433,
      "Ġworkers": 4434,
      "Ġworksh": 4435,
      "Ġoutd": 4436,
      "ĠPoor": 4437,
      "Ġrough": 4438,
      "ĠFore": 4439,
      "ĠFive": 4440,
      "ĠFestival": 4441,
      "osh": 4442,
      "hings": 4443,
      "Ġvill": 4444,
      "Ġvirus": 4445,
      "Ġoverd": 4446,
      "Ġchequ": 4447,
      "Ġcourt": 4448,
      "Ġapples": 4449,
      "Ġ26": 4450,
      "Ġbranch": 4451,
      "Ġreserved": 4452,
      "Ġchecks": 4453,
      "Ġideal": 4454,
      "izes": 4455,
      "Ġowners": 4456,
      "Ġextremely": 4457,
      "Ġsinger": 4458,
      "ĠJohnson": 4459,
      "Ġpolit": 4460,
      "Ġcomplim": 4461,
      "Ġindivid": 4462,
      "Ġterrific": 4463,
      "Ġwarning": 4464,
      "Ġseller": 4465,
      "Ġraining": 4466,
      "Ġparticip": 4467,
      "Ġpractical": 4468,
      "ĠZina": 4469,
      "Ġfalling": 4470,
      "Ġanniversary": 4471,
      "Ġcatalog": 4472,
      "Ġhandsome": 4473,
      "Ġeffects": 4474,
      "Ġcasual": 4475,
      "Ġcompetition": 4476,
      "Ġzoo": 4477,
      "ĠSuper": 4478,
      "Ġproperty": 4479,
      "XXXX": 4480,
      "ĠOlympic": 4481,
      "Ġhouses": 4482,
      "Ġcockt": 4483,
      "Ġcooperation": 4484,
      "ĠWonder": 4485,
      "Ġretirement": 4486,
      "Ġsixty": 4487,
      "Ġappetiz": 4488,
      "Ġoriginal": 4489,
      "Ġliterature": 4490,
      "Ġsupplies": 4491,
      "Ġdepressed": 4492,
      "Ġauthor": 4493,
      "ĠDefinitely": 4494,
      "15": 4495,
      "SA": 4496,
      "ca": 4497,
      "hod": 4498,
      "nces": 4499,
      "ta": 4500,
      "Ġing": 4501,
      "Ġess": 4502,
      "Ġsite": 4503,
      "Ġwire": 4504,
      "ham": 4505,
      "Ġtheater": 4506,
      "Ġbun": 4507,
      "Ġbunch": 4508,
      "Ġfol": 4509,
      "Ġfancy": 4510,
      "Ġpin": 4511,
      "Ġpork": 4512,
      "Ġlend": 4513,
      "Ġgrown": 4514,
      "Ġoptions": 4515,
      "ĠTea": 4516,
      "ĠTed": 4517,
      "ĠThings": 4518,
      "Ġreas": 4519,
      "ases": 4520,
      "entle": 4521,
      "ĠOver": 4522,
      "Ġstret": 4523,
      "ĠBas": 4524,
      "Ġjacket": 4525,
      "Ġthinks": 4526,
      "Ġknock": 4527,
      "Ġwashed": 4528,
      "ĠLove": 4529,
      "quet": 4530,
      "Ġspell": 4531,
      "ĠRom": 4532,
      "redient": 4533,
      "Ġchips": 4534,
      "ĠVI": 4535,
      "ĠHaven": 4536,
      "Ġappli": 4537,
      "Ġloved": 4538,
      "Ġunb": 4539,
      "Ġdeserve": 4540,
      "standing": 4541,
      "sych": 4542,
      "Ġterm": 4543,
      "Ġsuitcase": 4544,
      "Ġtourist": 4545,
      "Ġbroad": 4546,
      "Ġsleeping": 4547,
      "Ġhonor": 4548,
      "Ġarticles": 4549,
      "Ġforgotten": 4550,
      "minist": 4551,
      "ĠRoad": 4552,
      "weight": 4553,
      "Ġcameras": 4554,
      "ĠTrue": 4555,
      "Ġdamaged": 4556,
      "Ġobject": 4557,
      "bedroom": 4558,
      "smoking": 4559,
      "Ġadvertisement": 4560,
      "ĠEnjoy": 4561,
      "Ġcirc": 4562,
      "Ġstamps": 4563,
      "Ġscheduled": 4564,
      "Ġperfume": 4565,
      "Ġvehicle": 4566,
      "Ġmobile": 4567,
      "Ġindividual": 4568,
      "Ġingredient": 4569,
      "She": 4570,
      "cip": 4571,
      "eve": 4572,
      "ging": 4573,
      "iver": 4574,
      "nels": 4575,
      "pen": 4576,
      "rict": 4577,
      "uel": 4578,
      "you": 4579,
      "Ġtv": 4580,
      "Ġtit": 4581,
      "Ġtag": 4582,
      "hest": 4583,
      "inum": 4584,
      "Ġtheat": 4585,
      "Ġbicy": 4586,
      "Ġfan": 4587,
      "Ġdorm": 4588,
      "Ġpil": 4589,
      "Ġlake": 4590,
      "Ġlect": 4591,
      "ĠWant": 4592,
      "ĠWalk": 4593,
      "Ġinqu": 4594,
      "arm": 4595,
      "ids": 4596,
      "idden": 4597,
      "Ġlip": 4598,
      "ĠSe": 4599,
      "ĠSch": 4600,
      "ĠSqu": 4601,
      "enth": 4602,
      "Ġplays": 4603,
      "Ġsoda": 4604,
      "iforn": 4605,
      "hern": 4606,
      "ĠLisa": 4607,
      "Ġaltogether": 4608,
      "ils": 4609,
      "Ġproced": 4610,
      "Ġrum": 4611,
      "Ġrise": 4612,
      "Ġrisk": 4613,
      "ĠWhile": 4614,
      "Ġintend": 4615,
      "aging": 4616,
      "Ġchest": 4617,
      "venir": 4618,
      "Ġ23": 4619,
      "Ġflower": 4620,
      "efully": 4621,
      "Ġchances": 4622,
      "Ġunus": 4623,
      "Ġunivers": 4624,
      "Ġunless": 4625,
      "Ġblank": 4626,
      "Ġscient": 4627,
      "ĠAnna": 4628,
      "Ġstudies": 4629,
      "eech": 4630,
      "Ġglob": 4631,
      "Ġdining": 4632,
      "Ġskill": 4633,
      "Ġinsist": 4634,
      "Ġseries": 4635,
      "Ġregard": 4636,
      "Ġfrank": 4637,
      "Ġends": 4638,
      "iao": 4639,
      "Ġconsum": 4640,
      "Ġentire": 4641,
      "Ġrepres": 4642,
      "Ġrepeat": 4643,
      "Ġreturns": 4644,
      "Ġboys": 4645,
      "Ġbottles": 4646,
      "Ġsunny": 4647,
      "ĠSomething": 4648,
      "Ġsupervis": 4649,
      "ĠSpeaking": 4650,
      "Ġdistance": 4651,
      "Ġfairly": 4652,
      "porate": 4653,
      "Ġclimb": 4654,
      "Ġseafood": 4655,
      "Ġgrab": 4656,
      "Ġsettle": 4657,
      "Ġroute": 4658,
      "ĠOlympics": 4659,
      "Ġweakness": 4660,
      "Ġsenior": 4661,
      "ĠCaliforn": 4662,
      "Ġefficient": 4663,
      "Ġadvantage": 4664,
      "Ġcritic": 4665,
      "Ġtravelling": 4666,
      "Ġpurpose": 4667,
      "Ġsplit": 4668,
      "Ġsurvive": 4669,
      "Ġquantity": 4670,
      "ĠAugust": 4671,
      "Ġingredients": 4672,
      "Ġuniversities": 4673,
      "When": 4674,
      "vant": 4675,
      "vard": 4676,
      "wor": 4677,
      "yer": 4678,
      "Ġtone": 4679,
      "Ġpunch": 4680,
      "esome": 4681,
      "Ġgall": 4682,
      "Ġgro": 4683,
      "nda": 4684,
      "Ġinfl": 4685,
      "eding": 4686,
      "ĠHop": 4687,
      "ĠHum": 4688,
      "ĠHouse": 4689,
      "utation": 4690,
      "Ġumb": 4691,
      "ĠMaster": 4692,
      "Ġgoals": 4693,
      "ĠWeb": 4694,
      "ĠChan": 4695,
      "ĠDick": 4696,
      "ĠBir": 4697,
      "ĠBra": 4698,
      "ource": 4699,
      "Ġsole": 4700,
      "amed": 4701,
      "Ġsuite": 4702,
      "urger": 4703,
      "Ġcommercial": 4704,
      "ilson": 4705,
      "ulty": 4706,
      "Ġamb": 4707,
      "Ġrude": 4708,
      "ĠFour": 4709,
      "Ġclerk": 4710,
      "ĠRus": 4711,
      "Ġhadn": 4712,
      "idered": 4713,
      "Ġappl": 4714,
      "Ġminor": 4715,
      "Ġdownload": 4716,
      "oston": 4717,
      "ĠExp": 4718,
      "Ġschol": 4719,
      "ĠKore": 4720,
      "Ġsupply": 4721,
      "Ġempt": 4722,
      "Ġaddition": 4723,
      "Ġaddict": 4724,
      "Ġexpert": 4725,
      "Ġmethod": 4726,
      "Ġtyping": 4727,
      "cycle": 4728,
      "Ġmaintain": 4729,
      "Ġsnack": 4730,
      "Ġgraduation": 4731,
      "Ġgenerally": 4732,
      "Ġneighbors": 4733,
      "Ġparticularly": 4734,
      "Ġwalls": 4735,
      "Ġelectron": 4736,
      "Ġbenefit": 4737,
      "achelor": 4738,
      "Ġriver": 4739,
      "Ġtechnical": 4740,
      "Ġprincip": 4741,
      "Ġroutine": 4742,
      "Ġcharged": 4743,
      "Ġmotorcycle": 4744,
      "Ġturning": 4745,
      "Ġexperienced": 4746,
      "Ġneckl": 4747,
      "Ġbowl": 4748,
      "Ġspoken": 4749,
      "Ġphysical": 4750,
      "Ġeffort": 4751,
      "Ġchallenging": 4752,
      "ĠGlad": 4753,
      "ĠBusiness": 4754,
      "This": 4755,
      "Ġsouvenir": 4756,
      "ĠBelieve": 4757,
      "Ġincredible": 4758,
      "ĠWonderful": 4759,
      "Ġreasons": 4760,
      "Ġumbre": 4761,
      "Why": 4762,
      "father": 4763,
      "ky": 4764,
      "rit": 4765,
      "yle": 4766,
      "Ġ&": 4767,
      "ĠÂ": 4768,
      "Ġiron": 4769,
      "Ġtu": 4770,
      "ining": 4771,
      "onest": 4772,
      "Ġbrow": 4773,
      "Ġfired": 4774,
      "Ġflex": 4775,
      "Ġfestival": 4776,
      "Ġdare": 4777,
      "Ġdating": 4778,
      "Ġloose": 4779,
      "Ġgentle": 4780,
      "Ġnea": 4781,
      "Ġnap": 4782,
      "Ġnames": 4783,
      "eable": 4784,
      "aries": 4785,
      "arian": 4786,
      "ĠâĢĺ": 4787,
      "Ġforgive": 4788,
      "utch": 4789,
      "ĠSim": 4790,
      "ĠSich": 4791,
      "Ġstage": 4792,
      "ĠDri": 4793,
      "ĠBo": 4794,
      "Ġplate": 4795,
      "Ġplain": 4796,
      "Ġplants": 4797,
      "raft": 4798,
      "Ġspots": 4799,
      "Ġspeech": 4800,
      "ĠEve": 4801,
      "ĠPres": 4802,
      "ĠFred": 4803,
      "ĠRome": 4804,
      "ĠRick": 4805,
      "Ġloans": 4806,
      "Ġagent": 4807,
      "Ġcheer": 4808,
      "Ġchop": 4809,
      "Ġotherwise": 4810,
      "Ġadjust": 4811,
      "Ġchannels": 4812,
      "Ġinterests": 4813,
      "Ġblame": 4814,
      "Ġdepos": 4815,
      "ĠAnge": 4816,
      "Ġshame": 4817,
      "Ġbelow": 4818,
      "ucky": 4819,
      "Ġhappening": 4820,
      "Ġvisited": 4821,
      "Ġsigns": 4822,
      "ĠWhoa": 4823,
      "ĠForget": 4824,
      "Ġextension": 4825,
      "Ġ70": 4826,
      "ifications": 4827,
      "Ġeleven": 4828,
      "Ġpaperwork": 4829,
      "Ġgrades": 4830,
      "Ġtopic": 4831,
      "Ġhundreds": 4832,
      "Ġconsidering": 4833,
      "overed": 4834,
      "Ġphoto": 4835,
      "Ġneighbour": 4836,
      "Ġcats": 4837,
      "Ġnewspapers": 4838,
      "Ġregularly": 4839,
      "Ġvalu": 4840,
      "Ġeffective": 4841,
      "Ġfamilies": 4842,
      "Ġenterpr": 4843,
      "unte": 4844,
      "Ġgarage": 4845,
      "ĠWorking": 4846,
      "Ġscenery": 4847,
      "Ġcalm": 4848,
      "Ġresponsibilities": 4849,
      "offer": 4850,
      "Ġhousing": 4851,
      "ĠHarvard": 4852,
      "ĠCurrent": 4853,
      "Ġfeatures": 4854,
      "Ġtornado": 4855,
      "Ġcocktail": 4856,
      "ĠCalifornia": 4857,
      "ĠSichuan": 4858,
      "23": 4859,
      "TM": 4860,
      "ges": 4861,
      "iated": 4862,
      "ler": 4863,
      "pa": 4864,
      "ray": 4865,
      "rass": 4866,
      "sit": 4867,
      "uch": 4868,
      "vable": 4869,
      "Ġir": 4870,
      "Ġtip": 4871,
      "iny": 4872,
      "Ġwa": 4873,
      "Ġcough": 4874,
      "Ġtoil": 4875,
      "Ġbored": 4876,
      "Ġfond": 4877,
      "Ġdea": 4878,
      "Ġpig": 4879,
      "Ġpred": 4880,
      "Ġpock": 4881,
      "Ġoption": 4882,
      "Ġnature": 4883,
      "enry": 4884,
      "Ġhabits": 4885,
      "storm": 4886,
      "icing": 4887,
      "icag": 4888,
      "lend": 4889,
      "lection": 4890,
      "ĠHenry": 4891,
      "ĠAvenue": 4892,
      "ĠATM": 4893,
      "Ġstir": 4894,
      "Ġstere": 4895,
      "ĠMm": 4896,
      "roll": 4897,
      "rovert": 4898,
      "adem": 4899,
      "ĠBu": 4900,
      "ĠBoston": 4901,
      "Ġjud": 4902,
      "Ġjunk": 4903,
      "ĠNational": 4904,
      "Ġate": 4905,
      "cember": 4906,
      "Ġprob": 4907,
      "estic": 4908,
      "Ġcompens": 4909,
      "ĠRest": 4910,
      "Ġlog": 4911,
      "umes": 4912,
      "Ġgotta": 4913,
      "ĠAndy": 4914,
      "Ġrocks": 4915,
      "oles": 4916,
      "sia": 4917,
      "Ġwrote": 4918,
      "Ġdisag": 4919,
      "Ġtomat": 4920,
      "Ġscr": 4921,
      "Ġrecent": 4922,
      "Ġgrou": 4923,
      "ĠKate": 4924,
      "anced": 4925,
      "Ġbelt": 4926,
      "Ġembar": 4927,
      "ĠWilliam": 4928,
      "Ġspeaks": 4929,
      "Ġcoup": 4930,
      "Ġfrust": 4931,
      "ĠAlmost": 4932,
      "Ġoffering": 4933,
      "Ġconsidered": 4934,
      "Ġtransaction": 4935,
      "Ġclever": 4936,
      "ommod": 4937,
      "Ġthirt": 4938,
      "Ġwalked": 4939,
      "Ġpacked": 4940,
      "Ġreservations": 4941,
      "Ġbasically": 4942,
      "ĠAfric": 4943,
      "Ġconfused": 4944,
      "Ġlocation": 4945,
      "Ġreports": 4946,
      "Ġbarbec": 4947,
      "Ġholding": 4948,
      "Ġoppos": 4949,
      "Ġcompleted": 4950,
      "Ġfollowing": 4951,
      "ĠWaiter": 4952,
      "Ġtransferred": 4953,
      "Ġmentioned": 4954,
      "Ġfashionable": 4955,
      "Ġstarving": 4956,
      "ĠKevin": 4957,
      "Ġproperly": 4958,
      "---": 4959,
      "Ġprinter": 4960,
      "Ġcommunity": 4961,
      "Ġblocks": 4962,
      "Ġcolour": 4963,
      "ĠDecember": 4964,
      "Ġfacial": 4965,
      "Ġofficial": 4966,
      "Ġnetwork": 4967,
      "Ġadvertisements": 4968,
      "ĠBetty": 4969,
      "Ġcabin": 4970,
      "Ġpotatoes": 4971,
      "Ġcandidate": 4972,
      "Ġdeduct": 4973,
      "Ġconversation": 4974,
      "Ġoutdoor": 4975,
      "Ġtitle": 4976,
      "Ġunusual": 4977,
      "Ġempty": 4978,
      "Ġnecklace": 4979,
      "ĠPresident": 4980,
      "icago": 4981,
      "Don": 4982,
      "Now": 4983,
      "aign": 4984,
      "gers": 4985,
      "kn": 4986,
      "look": 4987,
      "pes": 4988,
      "uary": 4989,
      "word": 4990,
      "yn": 4991,
      "Ġvers": 4992,
      "Ġtape": 4993,
      "Ġcast": 4994,
      "Ġfab": 4995,
      "Ġdull": 4996,
      "Ġpills": 4997,
      "Ġnic": 4998,
      "omen": 4999,
      "ĠWest": 5000,
      "ening": 5001,
      "ened": 5002,
      "ĠTe": 5003,
      "uts": 5004,
      "Ġhey": 5005,
      "Ġweb": 5006,
      "Ġliqu": 5007,
      "Ġstairs": 5008,
      "ĠMed": 5009,
      "ĠMal": 5010,
      "roy": 5011,
      "ĠCall": 5012,
      "Ġseed": 5013,
      "Ġselection": 5014,
      "ĠDave": 5015,
      "ĠBring": 5016,
      "Ġsof": 5017,
      "Ġsore": 5018,
      "amin": 5019,
      "Ġprogress": 5020,
      "Ġrights": 5021,
      "ĠEd": 5022,
      "Ġcoin": 5023,
      "Ġcosm": 5024,
      "eping": 5025,
      "fered": 5026,
      "elly": 5027,
      "Ġwhenever": 5028,
      "Ġsheet": 5029,
      "ĠChicago": 5030,
      "ĠSurely": 5031,
      "Ġexpand": 5032,
      "Ġkeen": 5033,
      "Ġunl": 5034,
      "Ġbecame": 5035,
      "Ġharm": 5036,
      "arship": 5037,
      "Ġ36": 5038,
      "Ġwaiter": 5039,
      "Ġcharming": 5040,
      "Ġcaf": 5041,
      "Ġrelatives": 5042,
      "Ġdescription": 5043,
      "Ġdisco": 5044,
      "Ġevenings": 5045,
      "Ġshops": 5046,
      "Ġlaid": 5047,
      "Ġqualifications": 5048,
      "Ġemployer": 5049,
      "Ġwarming": 5050,
      "ĠEverybody": 5051,
      "Ġforecast": 5052,
      "Ġreputation": 5053,
      "Ġteachers": 5054,
      "olution": 5055,
      "Ġrequired": 5056,
      "Ġpostc": 5057,
      "Ġconsideration": 5058,
      "Ġfitness": 5059,
      "Ġarrang": 5060,
      "Ġhistor": 5061,
      "Ġequal": 5062,
      "ĠTrust": 5063,
      "Ġgrandmother": 5064,
      "Ġpotential": 5065,
      "Ġlawyer": 5066,
      "Ġsatisfaction": 5067,
      "Ġcampaign": 5068,
      "Ġobvious": 5069,
      "Ġstatement": 5070,
      "Ġshoe": 5071,
      "Ġconcern": 5072,
      "orgeous": 5073,
      "ĠEmory": 5074,
      "Ġofficer": 5075,
      "Ġdivorced": 5076,
      "Ġcigarette": 5077,
      "Ġromantic": 5078,
      "Ġceremony": 5079,
      "Ġsample": 5080,
      "Ġcrime": 5081,
      "Ġdata": 5082,
      "Ġcousin": 5083,
      "Ġmaximum": 5084,
      "Ġproposal": 5085,
      "ĠSpring": 5086,
      "Ġappliances": 5087,
      "Ġbicycle": 5088,
      "ĠSquare": 5089,
      "Ġglobal": 5090,
      "Ġsupervisor": 5091,
      "Ġumbrella": 5092,
      "Ġnearest": 5093,
      "Ġembarrass": 5094,
      "bage": 5095,
      "chan": 5096,
      "down": 5097,
      "hu": 5098,
      "made": 5099,
      "Ġtre": 5100,
      "Ġtar": 5101,
      "ĠIBA": 5102,
      "Ġmir": 5103,
      "Ġmult": 5104,
      "Ġcy": 5105,
      "Ġdiam": 5106,
      "Ġdirty": 5107,
      "omes": 5108,
      "ĠWatch": 5109,
      "ĠWork": 5110,
      "ĠTen": 5111,
      "ĠTim": 5112,
      "store": 5113,
      "Ġoffered": 5114,
      "ara": 5115,
      "icies": 5116,
      "Ġhired": 5117,
      "Ġheight": 5118,
      "ĠAlex": 5119,
      "Ġcancell": 5120,
      "Ġsteal": 5121,
      "Ġstations": 5122,
      "ĠMerry": 5123,
      "ĠCP": 5124,
      "ĠCont": 5125,
      "Ġsex": 5126,
      "usted": 5127,
      "Ġjew": 5128,
      "anta": 5129,
      "Ġsoc": 5130,
      "elie": 5131,
      "ĠPe": 5132,
      "Ġcoke": 5133,
      "Ġrates": 5134,
      "Ġcompar": 5135,
      "ĠJuly": 5136,
      "Ġtrick": 5137,
      "Ġgreatest": 5138,
      "Ġprevent": 5139,
      "Ġroommate": 5140,
      "Ġadmit": 5141,
      "Ġ27": 5142,
      "Ġbride": 5143,
      "Ġpermit": 5144,
      "Ġchannel": 5145,
      "size": 5146,
      "Ġdownstairs": 5147,
      "Ġaccomp": 5148,
      "Ġscale": 5149,
      "Ġdecent": 5150,
      "ĠKaren": 5151,
      "Ġcafe": 5152,
      "Ġattack": 5153,
      "Ġswitch": 5154,
      "Ġpersonally": 5155,
      "Ġevent": 5156,
      "ogn": 5157,
      "Ġrail": 5158,
      "Ġworrying": 5159,
      "Ġinformed": 5160,
      "ivil": 5161,
      "Ġtrim": 5162,
      "Ġruns": 5163,
      "Ġsending": 5164,
      "Ġpresents": 5165,
      "Ġconsult": 5166,
      "Ġ75": 5167,
      "Ġmarkets": 5168,
      "Ġfourth": 5169,
      "Ġpolicies": 5170,
      "azz": 5171,
      "Ġhaircut": 5172,
      "Ġcrack": 5173,
      "Ġconfidence": 5174,
      "Ġdetect": 5175,
      "Ġlessons": 5176,
      "Ġrequires": 5177,
      "Ġpurse": 5178,
      "shine": 5179,
      "Ġdesigned": 5180,
      "Ġautumn": 5181,
      "coln": 5182,
      "eteria": 5183,
      "Ġhighest": 5184,
      "Ġtradition": 5185,
      "Ġprofessor": 5186,
      "Ġteaching": 5187,
      "Ġbedrooms": 5188,
      "Ġagenda": 5189,
      "Ġhiking": 5190,
      "ĠAmy": 5191,
      "Ġunfortunately": 5192,
      "Ġfunds": 5193,
      "ĠGuess": 5194,
      "Ġbattery": 5195,
      "Ġpaintings": 5196,
      "Ġmixed": 5197,
      "Ġskiing": 5198,
      "Ġrobber": 5199,
      "Ġevidence": 5200,
      "Ġmanufacture": 5201,
      "ĠService": 5202,
      "Ġsharp": 5203,
      "Ġfocus": 5204,
      "Ġstrawber": 5205,
      "Ġcompliment": 5206,
      "Ġlipst": 5207,
      "Ġrepresent": 5208,
      "Ġapplied": 5209,
      "Ġtoilet": 5210,
      "Ġgroups": 5211,
      "Ġopposite": 5212,
      "Ġcafeteria": 5213,
      "11": 5214,
      "88": 5215,
      "Are": 5216,
      "Will": 5217,
      "aven": 5218,
      "free": 5219,
      "gal": 5220,
      "iant": 5221,
      "ked": 5222,
      "pack": 5223,
      "uing": 5224,
      "Ġx": 5225,
      "Ġtong": 5226,
      "ounce": 5227,
      "iner": 5228,
      "rel": 5229,
      "Ġmut": 5230,
      "onven": 5231,
      "Ġcott": 5232,
      "Ġcongratulations": 5233,
      "Ġfry": 5234,
      "Ġfitting": 5235,
      "Ġdates": 5236,
      "Ġpays": 5237,
      "Ġpipe": 5238,
      "Ġlem": 5239,
      "Ġlung": 5240,
      "Ġgun": 5241,
      "Ġgorgeous": 5242,
      "Ġnin": 5243,
      "Ġnurse": 5244,
      "ena": 5245,
      "Ġhamb": 5246,
      "Ġthirst": 5247,
      "Ġbeans": 5248,
      "ĠHall": 5249,
      "Ġweird": 5250,
      "Ġmechan": 5251,
      "Ġstars": 5252,
      "acious": 5253,
      "oodles": 5254,
      "Ġshri": 5255,
      "Ġshipping": 5256,
      "ears": 5257,
      "ppers": 5258,
      "ulate": 5259,
      "Ġworker": 5260,
      "ĠEast": 5261,
      "Ġcoast": 5262,
      "igning": 5263,
      "ĠFill": 5264,
      "unior": 5265,
      "ums": 5266,
      "redit": 5267,
      "actory": 5268,
      "Ġarms": 5269,
      "Ġprem": 5270,
      "Ġadult": 5271,
      "Ġpartner": 5272,
      "Ġsmile": 5273,
      "Ġscar": 5274,
      "Ġfinance": 5275,
      "Ġcontain": 5276,
      "onda": 5277,
      "Ġgrade": 5278,
      "eased": 5279,
      "Ġthoughtful": 5280,
      "Ġbelong": 5281,
      "tenance": 5282,
      "Ġattach": 5283,
      "Ġinvoice": 5284,
      "Ġfriendship": 5285,
      "Ġapart": 5286,
      "Ġsigned": 5287,
      "Ġteeth": 5288,
      "Ġfarm": 5289,
      "Ġstrate": 5290,
      "Ġ45": 5291,
      "Ġ400": 5292,
      "Ġbreaks": 5293,
      "Ġslight": 5294,
      "Ġcooked": 5295,
      "Ġhotels": 5296,
      "Ġforever": 5297,
      "Ġconcent": 5298,
      "Ġcustoms": 5299,
      "Ġmainly": 5300,
      "Ġinconven": 5301,
      "Ġforeigners": 5302,
      "Ġprovides": 5303,
      "ĠJanet": 5304,
      "Ġ250": 5305,
      "Ġengaged": 5306,
      "Ġcorrectly": 5307,
      "Ġzero": 5308,
      "Ġtechnology": 5309,
      "Ġkilled": 5310,
      "Ġapproach": 5311,
      "Ġdeadline": 5312,
      "Ġmillions": 5313,
      "Ġsilver": 5314,
      "Ġoccup": 5315,
      "Ġcalc": 5316,
      "ĠLincoln": 5317,
      "Ġmembership": 5318,
      "ĠBarbie": 5319,
      "Ġromance": 5320,
      "Ġcommunication": 5321,
      "ĠCentral": 5322,
      "Ġvolunte": 5323,
      "Ġseparate": 5324,
      "Ġstrengths": 5325,
      "Ġlaughing": 5326,
      "Ġentertainment": 5327,
      "ĠMartin": 5328,
      "Ġvillage": 5329,
      "Ġscholarship": 5330,
      "ĠRestaurant": 5331,
      "elievable": 5332,
      "Ġtongue": 5333,
      "In": 5334,
      "Track": 5335,
      "gon": 5336,
      "goes": 5337,
      "hlet": 5338,
      "iency": 5339,
      "mat": 5340,
      "pir": 5341,
      "zer": 5342,
      "ãĢ": 5343,
      "Ġ00": 5344,
      "Ġought": 5345,
      "Ġign": 5346,
      "ĠãĢ": 5347,
      "hache": 5348,
      "Ġyog": 5349,
      "Ġmort": 5350,
      "Ġcakes": 5351,
      "Ġbum": 5352,
      "Ġburn": 5353,
      "Ġbars": 5354,
      "itan": 5355,
      "Ġfinger": 5356,
      "Ġdust": 5357,
      "Ġpink": 5358,
      "Ġpers": 5359,
      "Ġlines": 5360,
      "Ġnation": 5361,
      "Ġinf": 5362,
      "Ġinj": 5363,
      "Ġitself": 5364,
      "arily": 5365,
      "lder": 5366,
      "ldom": 5367,
      "Ġreached": 5368,
      "Ġonto": 5369,
      "Ġhomet": 5370,
      "Ġhero": 5371,
      "Ġheaven": 5372,
      "Ġund": 5373,
      "Ġcandy": 5374,
      "Ġcancer": 5375,
      "ĠOper": 5376,
      "ĠOsc": 5377,
      "ĠMo": 5378,
      "ĠMars": 5379,
      "rop": 5380,
      "roaches": 5381,
      "Ġlikely": 5382,
      "ĠCons": 5383,
      "ĠDis": 5384,
      "ĠTheir": 5385,
      "Ġplac": 5386,
      "Ġsocc": 5387,
      "ĠNancy": 5388,
      "Ġathlet": 5389,
      "Ġexha": 5390,
      "ĠLaw": 5391,
      "Ġoutstanding": 5392,
      "Ġmum": 5393,
      "Ġupd": 5394,
      "ĠEs": 5395,
      "ĠEight": 5396,
      "ĠPet": 5397,
      "Ġrug": 5398,
      "ĠFl": 5399,
      "ĠForm": 5400,
      "ended": 5401,
      "Ġmoist": 5402,
      "Ġbuff": 5403,
      "Ġmangoes": 5404,
      "Ġblond": 5405,
      "angzhou": 5406,
      "Ġ35": 5407,
      "Ġcontest": 5408,
      "Ġgrass": 5409,
      "cling": 5410,
      "cles": 5411,
      "ĠKen": 5412,
      "Ġshad": 5413,
      "Ġshamp": 5414,
      "Ġsalt": 5415,
      "Ġcaused": 5416,
      "Ġpassion": 5417,
      "Ġbooth": 5418,
      "Ġstruct": 5419,
      "Ġpicked": 5420,
      "Ġtransl": 5421,
      "Ġapartments": 5422,
      "Ġmeter": 5423,
      "Ġvisitors": 5424,
      "Ġcris": 5425,
      "Ġfeelings": 5426,
      "Ġdifficulties": 5427,
      "athy": 5428,
      "Ġstreets": 5429,
      "Ġcentral": 5430,
      "Ġdiscussion": 5431,
      "Ġpromoted": 5432,
      "ĠDaddy": 5433,
      "Ġhorror": 5434,
      "Ġmode": 5435,
      "Ġfurnished": 5436,
      "Ġorganic": 5437,
      "Ġoperation": 5438,
      "Ġclimbing": 5439,
      "Ġfifth": 5440,
      "Ġ199": 5441,
      "Ġleaders": 5442,
      "Ġcultural": 5443,
      "Ġsubjects": 5444,
      "Ġcloser": 5445,
      "ĠManager": 5446,
      "Ġanti": 5447,
      "ĠCorporation": 5448,
      "Ġelectricity": 5449,
      "Ġpossibility": 5450,
      "ĠBritain": 5451,
      "ĠOtherwise": 5452,
      "ĠPersonal": 5453,
      "ĠMexico": 5454,
      "Ġladies": 5455,
      "Ġdomestic": 5456,
      "Ġappetizer": 5457,
      "ministration": 5458,
      "working": 5459,
      "ĠWebTrack": 5460,
      "ĠExpress": 5461,
      "Ġflexible": 5462,
      "roverted": 5463,
      "Ġbarbecue": 5464,
      "Ġlipstick": 5465,
      "Ġhometown": 5466,
      "Ġsoccer": 5467,
      "Ġshampoo": 5468,
      "ĠWebTracker": 5469,
      "500": 5470,
      "VD": 5471,
      "gant": 5472,
      "hour": 5473,
      "ik": 5474,
      "kins": 5475,
      "ok": 5476,
      "while": 5477,
      "yond": 5478,
      "zil": 5479,
      "hell": 5480,
      "Ġsout": 5481,
      "Ġwow": 5482,
      "Ġward": 5483,
      "Ġmic": 5484,
      "Ġtowards": 5485,
      "Ġpages": 5486,
      "Ġpants": 5487,
      "Ġpsych": 5488,
      "Ġleng": 5489,
      "Ġgambling": 5490,
      "Ġow": 5491,
      "Ġnone": 5492,
      "Ġnoodles": 5493,
      "etch": 5494,
      "ĠTax": 5495,
      "Ġinse": 5496,
      "Ġhill": 5497,
      "Ġhook": 5498,
      "uted": 5499,
      "Ġweigh": 5500,
      "ĠSame": 5501,
      "ĠSanta": 5502,
      "rier": 5503,
      "ased": 5504,
      "ashed": 5505,
      "illed": 5506,
      "ĠOut": 5507,
      "ĠOpen": 5508,
      "ĠMel": 5509,
      "Ġneither": 5510,
      "ĠCol": 5511,
      "ĠCredit": 5512,
      "Ġkiss": 5513,
      "Ġsevent": 5514,
      "ĠDam": 5515,
      "ĠDutch": 5516,
      "ĠDVD": 5517,
      "adena": 5518,
      "ĠBoy": 5519,
      "Ġsumm": 5520,
      "gee": 5521,
      "Ġcomed": 5522,
      "Ġalarm": 5523,
      "iles": 5524,
      "ilton": 5525,
      "Ġprove": 5526,
      "ĠGree": 5527,
      "ĠGee": 5528,
      "Ġoutf": 5529,
      "Ġupstairs": 5530,
      "ĠEconom": 5531,
      "ĠPal": 5532,
      "ĠPardon": 5533,
      "ĠJess": 5534,
      "Ġshoulder": 5535,
      "Ġvoted": 5536,
      "Ġrole": 5537,
      "Ġeaten": 5538,
      "ousers": 5539,
      "ĠThough": 5540,
      "Ġtrousers": 5541,
      "Ġtells": 5542,
      "udy": 5543,
      "ĠHaw": 5544,
      "Ġproof": 5545,
      "Ġimm": 5546,
      "ablish": 5547,
      "Ġlasts": 5548,
      "Ġcarr": 5549,
      "izzy": 5550,
      "Ġblind": 5551,
      "Ġblouse": 5552,
      "Ġrecogn": 5553,
      "Ġclassmates": 5554,
      "Ġdecis": 5555,
      "Ġsets": 5556,
      "Ġdebit": 5557,
      "Ġ800": 5558,
      "Ġpicking": 5559,
      "Ġbegan": 5560,
      "Ġheading": 5561,
      "Ġvacu": 5562,
      "Ġcleaned": 5563,
      "Ġexercising": 5564,
      "Ġdeter": 5565,
      "Ġjoining": 5566,
      "Ġawfully": 5567,
      "Ġparcel": 5568,
      "Ġprojects": 5569,
      "Ġwindows": 5570,
      "Ġthousands": 5571,
      "Ġvegetarian": 5572,
      "Ġpromote": 5573,
      "atively": 5574,
      "Ġgrowth": 5575,
      "Ġcollection": 5576,
      "Ġhorse": 5577,
      "Ġlaws": 5578,
      "Ġclubs": 5579,
      "Ġoperate": 5580,
      "Ġhumor": 5581,
      "Ġsolid": 5582,
      "ĠSuch": 5583,
      "Ġbreathing": 5584,
      "Ġkilling": 5585,
      "Ġpenc": 5586,
      "Ġcapital": 5587,
      "Ġrolls": 5588,
      "Ġbalcon": 5589,
      "Ġdraft": 5590,
      "Ġestablish": 5591,
      "Ġjournal": 5592,
      "ĠHuh": 5593,
      "Maybe": 5594,
      "Ġabsent": 5595,
      "ĠFinally": 5596,
      "Ġutilities": 5597,
      "Ġpreparing": 5598,
      "Ġfrequently": 5599,
      "Ġcrying": 5600,
      "ĠApple": 5601,
      "Ġmassage": 5602,
      "ĠFollow": 5603,
      "ĠForeign": 5604,
      "ĠVISA": 5605,
      "Ġinflu": 5606,
      "ĠHopefully": 5607,
      "ĠBrazil": 5608,
      "Ġaddicted": 5609,
      "Ġpocket": 5610,
      "Ġprobation": 5611,
      "Ġcompensation": 5612,
      "Have": 5613,
      "LS": 5614,
      "cond": 5615,
      "ek": 5616,
      "fall": 5617,
      "four": 5618,
      "iang": 5619,
      "rd": 5620,
      "sha": 5621,
      "Ġtables": 5622,
      "Ġau": 5623,
      "ĠIT": 5624,
      "Ġwalt": 5625,
      "Ġcit": 5626,
      "erally": 5627,
      "oring": 5628,
      "Ġfro": 5629,
      "Ġfans": 5630,
      "Ġdent": 5631,
      "Ġpath": 5632,
      "Ġpets": 5633,
      "Ġlone": 5634,
      "Ġgrew": 5635,
      "ĠWu": 5636,
      "ĠWin": 5637,
      "ĠWilson": 5638,
      "Ġham": 5639,
      "eave": 5640,
      "ĠTha": 5641,
      "ĠTony": 5642,
      "ats": 5643,
      "Ġthick": 5644,
      "ĠYup": 5645,
      "ication": 5646,
      "Ġbeyond": 5647,
      "Ġrev": 5648,
      "Ġreward": 5649,
      "ĠHonda": 5650,
      "alty": 5651,
      "ĠSit": 5652,
      "ĠSun": 5653,
      "ĠSever": 5654,
      "ĠSons": 5655,
      "ĠSyd": 5656,
      "Ġstates": 5657,
      "ĠMen": 5658,
      "ĠMill": 5659,
      "ĠMain": 5660,
      "Ġneg": 5661,
      "Ġshout": 5662,
      "Ġbutt": 5663,
      "ĠHelp": 5664,
      "Ġexec": 5665,
      "ĠLong": 5666,
      "ĠLos": 5667,
      "ushing": 5668,
      "Ġanybody": 5669,
      "Ġaltern": 5670,
      "Ġgoodness": 5671,
      "Ġupon": 5672,
      "ĠFe": 5673,
      "anda": 5674,
      "Ġrose": 5675,
      "ĠThink": 5676,
      "Ġchef": 5677,
      "Ġbug": 5678,
      "Ġtruck": 5679,
      "Ġchops": 5680,
      "ĠValent": 5681,
      "Ġappeal": 5682,
      "soc": 5683,
      "Ġ22": 5684,
      "Ġresources": 5685,
      "ode": 5686,
      "ensive": 5687,
      "Ġwaitress": 5688,
      "Ġbookstore": 5689,
      "ĠStar": 5690,
      "ĠStep": 5691,
      "Ġhandling": 5692,
      "Ġhousehold": 5693,
      "Ġcapt": 5694,
      "Ġdrives": 5695,
      "Ġskirts": 5696,
      "Ġsetting": 5697,
      "Ġtrainer": 5698,
      "Ġlisted": 5699,
      "Ġairmail": 5700,
      "Ġtrips": 5701,
      "Ġregret": 5702,
      "Ġregulations": 5703,
      "ĠAlthough": 5704,
      "Ġslot": 5705,
      "Ġslim": 5706,
      "Ġsings": 5707,
      "Ġbanks": 5708,
      "Ġcorporation": 5709,
      "Ġqualities": 5710,
      "Ġemployed": 5711,
      "Ġelection": 5712,
      "Ġtourn": 5713,
      "Ġrecommendation": 5714,
      "Ġacceptable": 5715,
      "Ġrains": 5716,
      "Ġprize": 5717,
      "Ġmemor": 5718,
      "Ġconsiderate": 5719,
      "inton": 5720,
      "Ġsunshine": 5721,
      "Ġpubl": 5722,
      "Ġenvy": 5723,
      "Ġdropped": 5724,
      "Ġstocks": 5725,
      "Ġinvestig": 5726,
      "Ġgrowing": 5727,
      "ĠUSD": 5728,
      "Ġmodels": 5729,
      "Ġfaith": 5730,
      "Ġlandsc": 5731,
      "engers": 5732,
      "Ġcompetitive": 5733,
      "Ġcarrying": 5734,
      "ertificates": 5735,
      "Ġbreathe": 5736,
      "Ġstressful": 5737,
      "Ġissues": 5738,
      "iquet": 5739,
      "ĠEmily": 5740,
      "Ġinstructions": 5741,
      "ĠIndian": 5742,
      "Ġnormally": 5743,
      "ĠBetter": 5744,
      "ĠSara": 5745,
      "Ġkilomet": 5746,
      "ĠMmmm": 5747,
      "ĠRebec": 5748,
      "ĠTravel": 5749,
      "Ġdestroy": 5750,
      "Ġadmire": 5751,
      "Ġcereal": 5752,
      "ĠElvin": 5753,
      "Ġjogging": 5754,
      "Ġpossibly": 5755,
      "Ġfortune": 5756,
      "Ġbehav": 5757,
      "Ġplatform": 5758,
      "ĠSingle": 5759,
      "ĠLoan": 5760,
      "Ġannoying": 5761,
      "ĠGenerally": 5762,
      "Ġtheatre": 5763,
      "ĠBirth": 5764,
      "Ġvaluable": 5765,
      "Ġshrimp": 5766,
      "Ġlength": 5767,
      "Ġinsect": 5768,
      "ĠSeveral": 5769,
      "ĠSydney": 5770,
      "ĠRebecca": 5771,
      "86": 5772,
      "IF": 5773,
      "Then": 5774,
      "bidden": 5775,
      "cceed": 5776,
      "lar": 5777,
      "mill": 5778,
      "mosp": 5779,
      "ssi": 5780,
      "uate": 5781,
      "uise": 5782,
      "Ġ000": 5783,
      "Ġtim": 5784,
      "Ġaward": 5785,
      "hew": 5786,
      "ino": 5787,
      "rev": 5788,
      "ĠInt": 5789,
      "Ġwool": 5790,
      "happy": 5791,
      "Ġcord": 5792,
      "Ġcivil": 5793,
      "Ġbes": 5794,
      "Ġbachelor": 5795,
      "ita": 5796,
      "itar": 5797,
      "Ġfra": 5798,
      "Ġduck": 5799,
      "Ġgross": 5800,
      "Ġoven": 5801,
      "Ġnons": 5802,
      "ĠWr": 5803,
      "ĠWomen": 5804,
      "enge": 5805,
      "ĠTian": 5806,
      "Ġinvent": 5807,
      "atically": 5808,
      "ĠYang": 5809,
      "iculous": 5810,
      "Ġforce": 5811,
      "Ġbend": 5812,
      "Ġrear": 5813,
      "ĠAM": 5814,
      "ĠSix": 5815,
      "Ġuh": 5816,
      "child": 5817,
      "Ġstood": 5818,
      "Ġstove": 5819,
      "ĠMarket": 5820,
      "ĠMont": 5821,
      "ĠMountain": 5822,
      "Ġgossi": 5823,
      "ĠCertificate": 5824,
      "ading": 5825,
      "Ġjeal": 5826,
      "Ġplates": 5827,
      "ĠNick": 5828,
      "ĠNope": 5829,
      "ĠNorth": 5830,
      "Ġsucceed": 5831,
      "urt": 5832,
      "ĠLa": 5833,
      "usi": 5834,
      "Ġalum": 5835,
      "Ġalthough": 5836,
      "ĠGate": 5837,
      "ateful": 5838,
      "Ġwhom": 5839,
      "elet": 5840,
      "ĠPat": 5841,
      "Ġcoach": 5842,
      "igent": 5843,
      "Ġroof": 5844,
      "Ġcompare": 5845,
      "Ġcomplex": 5846,
      "ĠFortunately": 5847,
      "ĠFlight": 5848,
      "Ġcondu": 5849,
      "Ġconvin": 5850,
      "Ġcloud": 5851,
      "Ġfeed": 5852,
      "fection": 5853,
      "Ġmoon": 5854,
      "Ġquot": 5855,
      "Ġoverweight": 5856,
      "Ġtroub": 5857,
      "Ġchina": 5858,
      "ĠVince": 5859,
      "Ġletting": 5860,
      "Ġ28": 5861,
      "Ġflies": 5862,
      "Ġunhappy": 5863,
      "izing": 5864,
      "Ġaccommod": 5865,
      "Ġinterp": 5866,
      "Ġinterrupt": 5867,
      "ango": 5868,
      "Ġ32": 5869,
      "iously": 5870,
      "Ġgrateful": 5871,
      "Ġplanet": 5872,
      "velous": 5873,
      "ĠSteve": 5874,
      "ancing": 5875,
      "Ġcausing": 5876,
      "Ġcalend": 5877,
      "Ġhearing": 5878,
      "Ġpassengers": 5879,
      "Ġpersonnel": 5880,
      "Ġbreast": 5881,
      "Ġmanaged": 5882,
      "Ġbeds": 5883,
      "Ġfoundation": 5884,
      "Ġstands": 5885,
      "Ġemployment": 5886,
      "Ġclothing": 5887,
      "Ġcurtain": 5888,
      "Ġdepartments": 5889,
      "Ġcamping": 5890,
      "Ġelegant": 5891,
      "Ġwinds": 5892,
      "Ġtasty": 5893,
      "Ġjoined": 5894,
      "Ġsuperior": 5895,
      "Ġphotograph": 5896,
      "Ġdesigns": 5897,
      "Ġroads": 5898,
      "Ġlowest": 5899,
      "ĠClub": 5900,
      "ĠJimmy": 5901,
      "Ġcollecting": 5902,
      "Ġtrading": 5903,
      "Ġdancer": 5904,
      "Ġdeveloping": 5905,
      "Ġexception": 5906,
      "check": 5907,
      "Ġille": 5908,
      "Ġgarbage": 5909,
      "Ġeconomic": 5910,
      "Ġunfair": 5911,
      "Ġchallenge": 5912,
      "Ġpepper": 5913,
      "ĠHarry": 5914,
      "Ġearthqu": 5915,
      "Ġnegotiate": 5916,
      "Ġtextbook": 5917,
      "Ġcockroaches": 5918,
      "Ġbaseball": 5919,
      "ĠCenter": 5920,
      "Ġdetailed": 5921,
      "Ġsurface": 5922,
      "Ġdeparture": 5923,
      "Ġindependent": 5924,
      "Ġlobby": 5925,
      "Ġinitial": 5926,
      "ĠCollege": 5927,
      "Ġstretch": 5928,
      "Ġunbelievable": 5929,
      "Ġprocedure": 5930,
      "Ġsouvenirs": 5931,
      "ĠDrive": 5932,
      "ĠAngeles": 5933,
      "Ġwaist": 5934,
      "Ġdeath": 5935,
      "ademic": 5936,
      "Ġjudge": 5937,
      "Ġdisagree": 5938,
      "Ġsofa": 5939,
      "Ġlemon": 5940,
      "Ġthirsty": 5941,
      "Ġinconvenience": 5942,
      "ĠãĢĤ": 5943,
      "Ġexhausted": 5944,
      "Ġmoisturi": 5945,
      "Ġvacuum": 5946,
      "Ġbalcony": 5947,
      "condition": 5948,
      "Ġwaltz": 5949,
      "Ġlonely": 5950,
      "ĠValentine": 5951,
      "ĠBirthday": 5952,
      "mosphere": 5953,
      "Ġbeside": 5954,
      "Ġjealous": 5955,
      "Ġcalendar": 5956,
      "13": 5957,
      "Well": 5958,
      "bag": 5959,
      "boy": 5960,
      "gn": 5961,
      "hh": 5962,
      "husi": 5963,
      "iance": 5964,
      "like": 5965,
      "no": 5966,
      "rating": 5967,
      "ux": 5968,
      "what": 5969,
      "Ġtires": 5970,
      "inct": 5971,
      "Ġsorts": 5972,
      "Ġsizes": 5973,
      "Ġwealth": 5974,
      "Ġmp": 5975,
      "onst": 5976,
      "lliant": 5977,
      "orough": 5978,
      "Ġfear": 5979,
      "Ġfright": 5980,
      "Ġfiction": 5981,
      "Ġdip": 5982,
      "Ġdizzy": 5983,
      "Ġlack": 5984,
      "Ġgather": 5985,
      "enities": 5986,
      "enger": 5987,
      "Ġthorough": 5988,
      "ĠâĢĵ": 5989,
      "Ġrefer": 5990,
      "Ġhole": 5991,
      "ĠAC": 5992,
      "ĠAw": 5993,
      "asy": 5994,
      "ĠOb": 5995,
      "Ġstew": 5996,
      "ĠCom": 5997,
      "Ġseldom": 5998,
      "ĠDa": 5999,
      "ĠBri": 6000,
      "Ġjunior": 6001,
      "Ġplug": 6002,
      "ĠYesterday": 6003,
      "Ġatmosphere": 6004,
      "Ġsuspect": 6005,
      "cture": 6006,
      "Ġshown": 6007,
      "urb": 6008,
      "rap": 6009,
      "Ġaller": 6010,
      "ĠLeave": 6011,
      "ushed": 6012,
      "ili": 6013,
      "iled": 6014,
      "ĠDoll": 6015,
      "ession": 6016,
      "ĠPI": 6017,
      "ĠPass": 6018,
      "ĠPLS": 6019,
      "iger": 6020,
      "Ġrace": 6021,
      "ĠRed": 6022,
      "ĠRel": 6023,
      "Ġque": 6024,
      "Ġqueen": 6025,
      "Ġintell": 6026,
      "obile": 6027,
      "Ġvan": 6028,
      "Ġvict": 6029,
      "Ġtwin": 6030,
      "Ġchose": 6031,
      "vings": 6032,
      "Ġleader": 6033,
      "Ġleading": 6034,
      "Ġimage": 6035,
      "Ġscary": 6036,
      "Ġfewer": 6037,
      "Ġrecon": 6038,
      "Ġrecover": 6039,
      "ĠAnne": 6040,
      "ferences": 6041,
      "ĠCouldn": 6042,
      "Ġwaited": 6043,
      "Ġplanned": 6044,
      "eek": 6045,
      "Ġshake": 6046,
      "Ġrelieve": 6047,
      "Ġsweat": 6048,
      "Ġtalks": 6049,
      "Ġdev": 6050,
      "Ġspecialty": 6051,
      "Ġreality": 6052,
      "Ġsurg": 6053,
      "Ġfavorable": 6054,
      "ĠToky": 6055,
      "Ġpolite": 6056,
      "Ġcommitted": 6057,
      "Ġlargest": 6058,
      "ĠDoesn": 6059,
      "chers": 6060,
      "Ġflights": 6061,
      "Ġenthusi": 6062,
      "Ġpackages": 6063,
      "Ġcrush": 6064,
      "Ġdifficulty": 6065,
      "Ġrecommended": 6066,
      "Ġbroch": 6067,
      "Ġassure": 6068,
      "Ġreply": 6069,
      "workers": 6070,
      "Ġposted": 6071,
      "Ġarriving": 6072,
      "Ġawesome": 6073,
      "Ġfallen": 6074,
      "Ġmidnight": 6075,
      "Ġcounse": 6076,
      "ĠAccord": 6077,
      "Ġdeveloped": 6078,
      "Ġeducational": 6079,
      "Ġsatisfactory": 6080,
      "Ġpattern": 6081,
      "ĠMarch": 6082,
      "Ġridiculous": 6083,
      "Ġwithdrawal": 6084,
      "Ġprinted": 6085,
      "Ġhanging": 6086,
      "Ġreduction": 6087,
      "Ġsmells": 6088,
      "Ġcolumn": 6089,
      "ĠCarl": 6090,
      "ĠGuangzhou": 6091,
      "Ġscene": 6092,
      "Ġconfirmation": 6093,
      "ĠJulie": 6094,
      "Ġpeel": 6095,
      "Ġdemonst": 6096,
      "Ġengineer": 6097,
      "Ġbrilliant": 6098,
      "Ġappetite": 6099,
      "Ġefforts": 6100,
      "Ġencourage": 6101,
      "Ġdumpl": 6102,
      "Ġdelayed": 6103,
      "ĠCharles": 6104,
      "arently": 6105,
      "Ġspirit": 6106,
      "Ġfavourite": 6107,
      "Ġjumped": 6108,
      "Ġwireless": 6109,
      "Ġelectronic": 6110,
      "ĠÂ£": 6111,
      "Ġfabulous": 6112,
      "Ġpostcards": 6113,
      "Ġdiamond": 6114,
      "Ġsociety": 6115,
      "Ġrailway": 6116,
      "Ġvolunteer": 6117,
      "Ġmortgage": 6118,
      "Ġstructure": 6119,
      "Ġoutfit": 6120,
      "Ġaluminum": 6121,
      "ĠTokyo": 6122,
      "DD": 6123,
      "EL": 6124,
      "Just": 6125,
      "Oh": 6126,
      "Pl": 6127,
      "can": 6128,
      "done": 6129,
      "fashion": 6130,
      "gas": 6131,
      "kin": 6132,
      "mind": 6133,
      "now": 6134,
      "pha": 6135,
      "rid": 6136,
      "rical": 6137,
      "ups": 6138,
      "wood": 6139,
      "walk": 6140,
      "Ġties": 6141,
      "Ġaunt": 6142,
      "Ġsens": 6143,
      "reme": 6144,
      "Ġwise": 6145,
      "Ġwoke": 6146,
      "Ġyard": 6147,
      "Ġmild": 6148,
      "Ġcav": 6149,
      "erable": 6150,
      "Ġtoes": 6151,
      "Ġtoys": 6152,
      "Ġbare": 6153,
      "orage": 6154,
      "orters": 6155,
      "Ġdiving": 6156,
      "isc": 6157,
      "iser": 6158,
      "Ġpad": 6159,
      "Ġpun": 6160,
      "Ġporter": 6161,
      "Ġlid": 6162,
      "Ġlink": 6163,
      "Ġge": 6164,
      "Ġgown": 6165,
      "ndy": 6166,
      "Ġoce": 6167,
      "Ġnor": 6168,
      "Ġniece": 6169,
      "Ġnamed": 6170,
      "eared": 6171,
      "ĠTy": 6172,
      "ĠTina": 6173,
      "stood": 6174,
      "Ġreference": 6175,
      "ĠHo": 6176,
      "Ġhesit": 6177,
      "idents": 6178,
      "ĠAut": 6179,
      "ĠSer": 6180,
      "ĠSan": 6181,
      "ims": 6182,
      "Ġstorage": 6183,
      "ĠMad": 6184,
      "iry": 6185,
      "Ġsemin": 6186,
      "ĠDear": 6187,
      "ĠBook": 6188,
      "ĠBang": 6189,
      "Ġjoke": 6190,
      "Ġplot": 6191,
      "antly": 6192,
      "ĠNet": 6193,
      "oph": 6194,
      "urning": 6195,
      "Ġexist": 6196,
      "ĠLaur": 6197,
      "ighted": 6198,
      "Ġalive": 6199,
      "iland": 6200,
      "ulance": 6201,
      "ĠNobody": 6202,
      "Ġtools": 6203,
      "Ġamenities": 6204,
      "ĠEDD": 6205,
      "aint": 6206,
      "ĠPr": 6207,
      "Ġrow": 6208,
      "Ġrub": 6209,
      "Ġrating": 6210,
      "ĠFantastic": 6211,
      "ĠRock": 6212,
      "Ġintention": 6213,
      "Ġhowever": 6214,
      "ouses": 6215,
      "Ġenvelop": 6216,
      "Ġlottery": 6217,
      "Ġsafer": 6218,
      "Ġchin": 6219,
      "Ġchilly": 6220,
      "Ġafterwards": 6221,
      "Ġguitar": 6222,
      "erves": 6223,
      "Ġuncom": 6224,
      "Ġgram": 6225,
      "gged": 6226,
      "class": 6227,
      "Ġsuppli": 6228,
      "Ġpasses": 6229,
      "Ġdeserves": 6230,
      "Ġrap": 6231,
      "Ġmathe": 6232,
      "Ġemails": 6233,
      "Ġfunction": 6234,
      "Ġturns": 6235,
      "Ġthroughout": 6236,
      "Ġspeakers": 6237,
      "Ġframe": 6238,
      "ĠAlt": 6239,
      "Ġcountryside": 6240,
      "Ġbreaking": 6241,
      "Ġreturning": 6242,
      "Ġinterviews": 6243,
      "Ġcorporate": 6244,
      "Ġbirds": 6245,
      "Ġinstance": 6246,
      "Ġexamination": 6247,
      "Ġsites": 6248,
      "Ġcookies": 6249,
      "Ġmetal": 6250,
      "Ġshortly": 6251,
      "Ġassured": 6252,
      "Ġrepay": 6253,
      "Ġmaintenance": 6254,
      "Ġdefinite": 6255,
      "Ġlesson": 6256,
      "Ġmemo": 6257,
      "intosh": 6258,
      "Ġattending": 6259,
      "Ġdepending": 6260,
      "Ġconditioning": 6261,
      "Ġhonestly": 6262,
      "Ġtempt": 6263,
      "Ġtreatment": 6264,
      "Ġanswers": 6265,
      "Ġdrove": 6266,
      "Ġgeneration": 6267,
      "Ġdirections": 6268,
      "Ġpairs": 6269,
      "Ġsteps": 6270,
      "ysis": 6271,
      "Ġlandl": 6272,
      "coming": 6273,
      "Ġopera": 6274,
      "Ġcurrently": 6275,
      "Ġpatience": 6276,
      "ĠMaria": 6277,
      "Ġapproval": 6278,
      "Ġlabel": 6279,
      "Ġburning": 6280,
      "Ġcapable": 6281,
      "ĠMicro": 6282,
      "Ġrelationships": 6283,
      "Ġpulled": 6284,
      "Ġshooting": 6285,
      "Ġchatting": 6286,
      "Ġpropose": 6287,
      "ĠIndeed": 6288,
      "ĠGerm": 6289,
      "Ġmiserable": 6290,
      "Ġexperiences": 6291,
      "Ġwooden": 6292,
      "Ġmarks": 6293,
      "Ġmarked": 6294,
      "Ġefficiency": 6295,
      "Ġadvantages": 6296,
      "Ġassigned": 6297,
      "Ġchemistry": 6298,
      "Ġarrested": 6299,
      "ĠCoffee": 6300,
      "Ġidentification": 6301,
      "Ġdrugs": 6302,
      "Ġreligious": 6303,
      "ĠSavings": 6304,
      "Ġanalysis": 6305,
      "ĠBeaut": 6306,
      "Ġworkshop": 6307,
      "Ġbungee": 6308,
      "Ġlecture": 6309,
      "Ġmethods": 6310,
      "Ġtuition": 6311,
      "Ġstereo": 6312,
      "Ġtomato": 6313,
      "Ġcoupons": 6314,
      "ĠAfrica": 6315,
      "known": 6316,
      "Ġarranged": 6317,
      "Ġtarget": 6318,
      "Ġdetective": 6319,
      "Ġstrategy": 6320,
      "Ġconcentrate": 6321,
      "ĠEspecially": 6322,
      "ĠDamn": 6323,
      "ĠGreek": 6324,
      "Ġcarrots": 6325,
      "ĠThailand": 6326,
      "Ġkilometers": 6327,
      "ĠPIN": 6328,
      "fashioned": 6329,
      "minded": 6330,
      "ĠLaura": 6331,
      "Ġuncomfortable": 6332,
      "Ġsuppliers": 6333,
      "12": 6334,
      "67": 6335,
      "Sm": 6336,
      "Where": 6337,
      "cin": 6338,
      "cious": 6339,
      "ean": 6340,
      "gin": 6341,
      "giving": 6342,
      "iers": 6343,
      "jamin": 6344,
      "of": 6345,
      "oom": 6346,
      "sed": 6347,
      "ship": 6348,
      "tor": 6349,
      "ties": 6350,
      "ww": 6351,
      "west": 6352,
      "Ġtack": 6353,
      "Ġtips": 6354,
      "Ġah": 6355,
      "Ġsac": 6356,
      "Ġsink": 6357,
      "rer": 6358,
      "ĠIm": 6359,
      "Ġwest": 6360,
      "Ġmur": 6361,
      "Ġcow": 6362,
      "Ġcate": 6363,
      "erob": 6364,
      "itam": 6365,
      "Ġfiance": 6366,
      "Ġpour": 6367,
      "Ġpure": 6368,
      "Ġpump": 6369,
      "Ġpardon": 6370,
      "Ġlamb": 6371,
      "Ġgay": 6372,
      "Ġgroom": 6373,
      "Ġneat": 6374,
      "omin": 6375,
      "ĠWood": 6376,
      "ences": 6377,
      "etics": 6378,
      "ĠTimes": 6379,
      "Ġthrew": 6380,
      "Ġthrill": 6381,
      "Ġisland": 6382,
      "ĠYi": 6383,
      "Ġbean": 6384,
      "Ġhike": 6385,
      "utes": 6386,
      "Ġheels": 6387,
      "ida": 6388,
      "Ġeval": 6389,
      "ĠAc": 6390,
      "alf": 6391,
      "ĠSl": 6392,
      "Ġcance": 6393,
      "imb": 6394,
      "ashing": 6395,
      "Ġstain": 6396,
      "Ġstole": 6397,
      "ĠMus": 6398,
      "irley": 6399,
      "ĠCap": 6400,
      "ĠCash": 6401,
      "ĠDian": 6402,
      "ĠBack": 6403,
      "ĠBaker": 6404,
      "Ġexit": 6405,
      "ĠGames": 6406,
      "Ġspread": 6407,
      "ĠPol": 6408,
      "Ġours": 6409,
      "Ġcovers": 6410,
      "Ġracket": 6411,
      "Ġconclud": 6412,
      "andy": 6413,
      "ĠRy": 6414,
      "ĠRich": 6415,
      "istics": 6416,
      "Ġvia": 6417,
      "Ġvoting": 6418,
      "reeze": 6419,
      "Ġeager": 6420,
      "Ġovernight": 6421,
      "ĠThirty": 6422,
      "Ġsaved": 6423,
      "itty": 6424,
      "ittance": 6425,
      "ĠHaha": 6426,
      "Ġpron": 6427,
      "Ġleaking": 6428,
      "Ġ29": 6429,
      "Ġbranc": 6430,
      "Ġresolution": 6431,
      "Ġmornings": 6432,
      "Ġperman": 6433,
      "Ġidi": 6434,
      "Ġmanners": 6435,
      "getic": 6436,
      "ĠUmm": 6437,
      "Ġhardware": 6438,
      "Ġclassic": 6439,
      "Ġbooking": 6440,
      "Ġphil": 6441,
      "Ġcareless": 6442,
      "Ġcardboard": 6443,
      "ealand": 6444,
      "clus": 6445,
      "Ġactual": 6446,
      "Ġhanded": 6447,
      "Ġsooner": 6448,
      "Ġcharity": 6449,
      "Ġpassenger": 6450,
      "Ġraised": 6451,
      "Ġskating": 6452,
      "Ġmatches": 6453,
      "Ġbringing": 6454,
      "icals": 6455,
      "Ġmarvelous": 6456,
      "Ġserving": 6457,
      "Ġtries": 6458,
      "Ġprescribe": 6459,
      "Ġacademic": 6460,
      "Ġprompt": 6461,
      "Ġrealized": 6462,
      "Ġmatters": 6463,
      "Ġcredits": 6464,
      "Ġbird": 6465,
      "Ġwines": 6466,
      "Ġfiling": 6467,
      "Ġfilet": 6468,
      "Ġdeals": 6469,
      "Ġvacant": 6470,
      "Ġforest": 6471,
      "Ġsmoker": 6472,
      "Ġexercises": 6473,
      "Ġrainy": 6474,
      "Ġesc": 6475,
      "ĠShirley": 6476,
      "Ġcatching": 6477,
      "Ġallowance": 6478,
      "Ġattended": 6479,
      "Ġresponse": 6480,
      "Ġweights": 6481,
      "Ġdiscussed": 6482,
      "ĠJanuary": 6483,
      "ĠTwenty": 6484,
      "ĠZealand": 6485,
      "Ġtempor": 6486,
      "Ġtreated": 6487,
      "Ġdesigner": 6488,
      "Ġexplan": 6489,
      "Ġcollections": 6490,
      "ĠNeither": 6491,
      "Ġfields": 6492,
      "ĠBrad": 6493,
      "Ġbenefic": 6494,
      "Ġcheapest": 6495,
      "Ġgrandfather": 6496,
      "Ġfruits": 6497,
      "Ġfigured": 6498,
      "Ġarrangement": 6499,
      "Ġarrangements": 6500,
      "box": 6501,
      "Ġripe": 6502,
      "Ġripped": 6503,
      "Ġanimal": 6504,
      "Ġriding": 6505,
      "Ġbothering": 6506,
      "Ġreduced": 6507,
      "Ġcloses": 6508,
      "ĠParker": 6509,
      "ĠManagement": 6510,
      "Ġbrain": 6511,
      "Ġbrave": 6512,
      "ĠMacintosh": 6513,
      "Ġcartons": 6514,
      "Ġcreated": 6515,
      "Ġenergetic": 6516,
      "ĠReg": 6517,
      "Ġsensible": 6518,
      "Ġphysics": 6519,
      "ĠEuropean": 6520,
      "Ġdestination": 6521,
      "Ġautomatic": 6522,
      "Ġsamples": 6523,
      "Ġstrike": 6524,
      "Ġmeantime": 6525,
      "ĠBritish": 6526,
      "Ġorganization": 6527,
      "Ġbleeding": 6528,
      "Ġconstru": 6529,
      "ĠBenjamin": 6530,
      "Ġcombination": 6531,
      "Ġmask": 6532,
      "Ġpuzz": 6533,
      "Ġplumbing": 6534,
      "Ġflavors": 6535,
      "Ġaudience": 6536,
      "Ġcreate": 6537,
      "Ġpolitical": 6538,
      "ĠSchool": 6539,
      "Ġambulance": 6540,
      "Ġenterprise": 6541,
      "Ġpredict": 6542,
      "storms": 6543,
      "Ġhistorical": 6544,
      "Ġmirror": 6545,
      "Ġrobbery": 6546,
      "Ġrepresentative": 6547,
      "Ġcotton": 6548,
      "Ġhamburger": 6549,
      "ĠTaxi": 6550,
      "ĠPalace": 6551,
      "ĠHawai": 6552,
      "Ġdecisions": 6553,
      "Ġpencil": 6554,
      "Ġbehavior": 6555,
      "Ġconvinced": 6556,
      "Ġillegal": 6557,
      "Ġearthquake": 6558,
      "Ġsurgery": 6559,
      "ĠAltadena": 6560,
      "Smith": 6561,
      "itamins": 6562,
      "Ġbranches": 6563,
      "18": 6564,
      "34": 6565,
      "95": 6566,
      "Any": 6567,
      "cies": 6568,
      "fts": 6569,
      "firm": 6570,
      "host": 6571,
      "lt": 6572,
      "long": 6573,
      "met": 6574,
      "mine": 6575,
      "moking": 6576,
      "pot": 6577,
      "round": 6578,
      "ument": 6579,
      "Ġtap": 6580,
      "Ġtabl": 6581,
      "Ġtatt": 6582,
      "Ġtango": 6583,
      "oust": 6584,
      "inner": 6585,
      "Ġsources": 6586,
      "ĠIB": 6587,
      "ĠIr": 6588,
      "Ġmer": 6589,
      "Ġcro": 6590,
      "eries": 6591,
      "itute": 6592,
      "Ġfle": 6593,
      "Ġfas": 6594,
      "Ġdi": 6595,
      "Ġpam": 6596,
      "Ġgre": 6597,
      "Ġgrill": 6598,
      "ĠThai": 6599,
      "Ġinch": 6600,
      "ators": 6601,
      "Ġthunder": 6602,
      "arrow": 6603,
      "ĠYellow": 6604,
      "Ġbeers": 6605,
      "ĠHR": 6606,
      "ĠHilton": 6607,
      "Ġhiring": 6608,
      "Ġheating": 6609,
      "ĠAha": 6610,
      "ĠAgency": 6611,
      "ĠAsian": 6612,
      "ĠSw": 6613,
      "Ġupper": 6614,
      "illa": 6615,
      "ĠOak": 6616,
      "ching": 6617,
      "Ġstone": 6618,
      "ĠMid": 6619,
      "ĠMine": 6620,
      "ĠMiao": 6621,
      "roke": 6622,
      "ĠCha": 6623,
      "ĠCop": 6624,
      "ĠCIF": 6625,
      "ĠDel": 6626,
      "Ġjet": 6627,
      "Ġsoap": 6628,
      "Ġsung": 6629,
      "Ġshock": 6630,
      "Ġworn": 6631,
      "ores": 6632,
      "Ġaspect": 6633,
      "ĠLake": 6634,
      "Ġwholes": 6635,
      "Ġneedn": 6636,
      "Ġoutgoing": 6637,
      "ĠET": 6638,
      "ĠEither": 6639,
      "ĠPay": 6640,
      "ĠFif": 6641,
      "osen": 6642,
      "ĠJerry": 6643,
      "ĠJudy": 6644,
      "Ġclick": 6645,
      "ĠRec": 6646,
      "istant": 6647,
      "aked": 6648,
      "Ġeast": 6649,
      "assy": 6650,
      "Ġens": 6651,
      "Ġsheets": 6652,
      "Ġtrash": 6653,
      "Ġtruly": 6654,
      "Ġchosen": 6655,
      "Ġgreatly": 6656,
      "Ġpret": 6657,
      "Ġpregn": 6658,
      "Ġbrac": 6659,
      "Ġbridge": 6660,
      "Ġflea": 6661,
      "Ġunited": 6662,
      "eresting": 6663,
      "Ġwriter": 6664,
      "ĠInst": 6665,
      "Ġblog": 6666,
      "Ġscrew": 6667,
      "ĠUntil": 6668,
      "ĠKelly": 6669,
      "Ġsupper": 6670,
      "Ġreliable": 6671,
      "Ġdeb": 6672,
      "ivity": 6673,
      "Ġtrial": 6674,
      "Ġcouples": 6675,
      "ĠJoan": 6676,
      "Ġmush": 6677,
      "Ġteen": 6678,
      "Ġstranger": 6679,
      "Ġsli": 6680,
      "Ġslipped": 6681,
      "Ġmanagers": 6682,
      "ĠJohnny": 6683,
      "Ġcleans": 6684,
      "Ġwinning": 6685,
      "Ġqualify": 6686,
      "Ġwears": 6687,
      "Ġrental": 6688,
      "Ġrefuse": 6689,
      "criptions": 6690,
      "Ġsym": 6691,
      "Ġprior": 6692,
      "Ġedge": 6693,
      "Ġedition": 6694,
      "Ġarrival": 6695,
      "Ġallows": 6696,
      "Ġfollowed": 6697,
      "Ġwheel": 6698,
      "ĠJanice": 6699,
      "Ġsystems": 6700,
      "Ġannoun": 6701,
      "Ġannounce": 6702,
      "Ġballs": 6703,
      "Ġsisters": 6704,
      "Ġbrothers": 6705,
      "Ġdistract": 6706,
      "Ġdances": 6707,
      "Ġintroduced": 6708,
      "Ġlanded": 6709,
      "Ġcompete": 6710,
      "Ġfreed": 6711,
      "Ġconnected": 6712,
      "Ġburger": 6713,
      "Ġsalads": 6714,
      "Ġprints": 6715,
      "Ġborrowed": 6716,
      "Ġcomplaints": 6717,
      "Ġreminds": 6718,
      "Ġreminding": 6719,
      "Ġnotebook": 6720,
      "Ġleads": 6721,
      "Ġcreative": 6722,
      "Ġnutr": 6723,
      "Ġdocumentary": 6724,
      "Ġrobbed": 6725,
      "Ġcommunicate": 6726,
      "ĠAirlines": 6727,
      "Ġbanking": 6728,
      "Ġlimited": 6729,
      "Ġpreparation": 6730,
      "Ġnovels": 6731,
      "Ġpeaceful": 6732,
      "ĠLeo": 6733,
      "Ġoverdraft": 6734,
      "Ġfolk": 6735,
      "ĠBasically": 6736,
      "iverse": 6737,
      "ĠChannel": 6738,
      "Ġfrustrating": 6739,
      "ynasty": 6740,
      "Ġpremium": 6741,
      "pirin": 6742,
      "Ġbuffet": 6743,
      "Ġsouthern": 6744,
      "Ġimmig": 6745,
      "Ġinfluence": 6746,
      "Ġgossip": 6747,
      "ĠBrian": 6748,
      "Ġcounselor": 6749,
      "Please": 6750,
      "Ġbarely": 6751,
      "Ġhesitate": 6752,
      "ĠSeriously": 6753,
      "Ġlandlord": 6754,
      "ĠRyan": 6755,
      "Ġpermanent": 6756,
      "Ġphilos": 6757,
      "ĠHawaii": 6758,
      "Ġfascin": 6759,
      "32": 6760,
      "40": 6761,
      "80": 6762,
      "apt": 6763,
      "char": 6764,
      "eight": 6765,
      "eenth": 6766,
      "for": 6767,
      "ige": 6768,
      "lin": 6769,
      "mission": 6770,
      "piece": 6771,
      "Ġtan": 6772,
      "Ġtid": 6773,
      "Ġaerob": 6774,
      "rely": 6775,
      "Ġtheory": 6776,
      "Ġcub": 6777,
      "Ġtoot": 6778,
      "orate": 6779,
      "order": 6780,
      "Ġdim": 6781,
      "Ġdil": 6782,
      "antern": 6783,
      "Ġpit": 6784,
      "Ġpow": 6785,
      "Ġpul": 6786,
      "Ġpace": 6787,
      "Ġpeak": 6788,
      "Ġlux": 6789,
      "Ġgam": 6790,
      "Ġgap": 6791,
      "Ġghost": 6792,
      "Ġnasty": 6793,
      "Ġhack": 6794,
      "ĠTO": 6795,
      "ĠTv": 6796,
      "ĠTalk": 6797,
      "ĠTang": 6798,
      "Ġink": 6799,
      "atin": 6800,
      "Ġthreat": 6801,
      "iches": 6802,
      "Ġformer": 6803,
      "Ġreb": 6804,
      "ĠHol": 6805,
      "ĠHonest": 6806,
      "ĠHalf": 6807,
      "Ġdoz": 6808,
      "Ġhip": 6809,
      "ĠSeat": 6810,
      "rip": 6811,
      "rial": 6812,
      "Ġum": 6813,
      "Ġstays": 6814,
      "ĠMag": 6815,
      "Ġank": 6816,
      "ĠCook": 6817,
      "ĠCoke": 6818,
      "ĠDes": 6819,
      "Ġjoint": 6820,
      "Ġjazz": 6821,
      "ĠNBA": 6822,
      "ĠLA": 6823,
      "ĠLes": 6824,
      "ĠLots": 6825,
      "Ġalb": 6826,
      "ĠGold": 6827,
      "Ġwhose": 6828,
      "quis": 6829,
      "ĠPing": 6830,
      "ĠPost": 6831,
      "Ġlogo": 6832,
      "resso": 6833,
      "ĠAnderson": 6834,
      "oline": 6835,
      "agon": 6836,
      "agers": 6837,
      "Ġcheating": 6838,
      "Ġtricks": 6839,
      "Ġsaves": 6840,
      "Ġarts": 6841,
      "ĠHaving": 6842,
      "soft": 6843,
      "Ġpaycheck": 6844,
      "bered": 6845,
      "Ġresign": 6846,
      "Ġflash": 6847,
      "Ġhappier": 6848,
      "Ġmustn": 6849,
      "ignon": 6850,
      "Ġunion": 6851,
      "Ġmonitor": 6852,
      "Ġuseless": 6853,
      "Ġdislike": 6854,
      "Ġbloss": 6855,
      "Ġchap": 6856,
      "Ġnightm": 6857,
      "ĠAllen": 6858,
      "Ġrecy": 6859,
      "ilding": 6860,
      "ĠStars": 6861,
      "Ġhandbag": 6862,
      "Ġsharing": 6863,
      "Ġremem": 6864,
      "Ġremove": 6865,
      "Ġcauses": 6866,
      "Ġrelief": 6867,
      "ffered": 6868,
      "Ġspecially": 6869,
      "Ġmatt": 6870,
      "Ġemb": 6871,
      "Ġdifferently": 6872,
      "Ġhighway": 6873,
      "Ġtrained": 6874,
      "Ġfreezing": 6875,
      "Ġsignature": 6876,
      "Ġmusical": 6877,
      "Ġending": 6878,
      "Ġlawn": 6879,
      "rooms": 6880,
      "Ġentry": 6881,
      "Ġcleaner": 6882,
      "Ġvent": 6883,
      "Ġsells": 6884,
      "Ġappreciated": 6885,
      "Ġrefres": 6886,
      "Ġreflect": 6887,
      "Ġhonors": 6888,
      "Ġcontracts": 6889,
      "Ġcentury": 6890,
      "olley": 6891,
      "Ġattendant": 6892,
      "Ġblackout": 6893,
      "Ġconvenience": 6894,
      "Ġreceipts": 6895,
      "ĠTaipe": 6896,
      "Ġphotography": 6897,
      "Ġaffairs": 6898,
      "Ġvegetable": 6899,
      "Ġgenerous": 6900,
      "Ġcupboard": 6901,
      "Ġstronger": 6902,
      "Ġelected": 6903,
      "Ġprofession": 6904,
      "Ġprofessors": 6905,
      "Ġaffordable": 6906,
      "Ġdivided": 6907,
      "Ġdreamed": 6908,
      "Ġzone": 6909,
      "Ġmotiv": 6910,
      "Ġstressed": 6911,
      "Ġimprovement": 6912,
      "Ġcomplaint": 6913,
      "Ġgarlic": 6914,
      "Ġnaturally": 6915,
      "Ġactivity": 6916,
      "Ġfighting": 6917,
      "Ġestabl": 6918,
      "ĠItaly": 6919,
      "Ġduties": 6920,
      "ĠAround": 6921,
      "Ġsteaks": 6922,
      "Ġscores": 6923,
      "ounter": 6924,
      "Ġkilo": 6925,
      "Ġkilos": 6926,
      "Ġantique": 6927,
      "Ġnegotiation": 6928,
      "Ġnuts": 6929,
      "Ġbanquet": 6930,
      "Ġjokes": 6931,
      "Ġdecorating": 6932,
      "Ġautomatically": 6933,
      "Ġorganizing": 6934,
      "Ġlifest": 6935,
      "Ġargue": 6936,
      "Ġshuttle": 6937,
      "Ġfrequent": 6938,
      "Ġflavor": 6939,
      "Ġviolence": 6940,
      "ĠWindows": 6941,
      "ĠSandals": 6942,
      "Ġcheque": 6943,
      "Ġfolks": 6944,
      "ĠRomans": 6945,
      "Ġcircum": 6946,
      "Ġregarding": 6947,
      "ĠKorea": 6948,
      "Ġobviously": 6949,
      "ĠContin": 6950,
      "Ġaccomplish": 6951,
      "Ġmanufacturer": 6952,
      "Ġstrawberry": 6953,
      "Ġoccupation": 6954,
      "Ġshadow": 6955,
      "Ġcrisp": 6956,
      "Ġowner": 6957,
      "Ġseventy": 6958,
      "Ġdentist": 6959,
      "Ġinsects": 6960,
      "Ġcurtains": 6961,
      "ĠMicrosoft": 6962,
      "Ġcateg": 6963,
      "Ġexplanation": 6964,
      "Ġtablets": 6965,
      "Ġtattoo": 6966,
      "ĠIBM": 6967,
      "ĠETV": 6968,
      "Ġfreedom": 6969,
      "Ġgamble": 6970,
      "olleyball": 6971,
      "ĠTaipei": 6972,
      "17": 6973,
      "42": 6974,
      "65": 6975,
      "89": 6976,
      "Wh": 6977,
      "cery": 6978,
      "fers": 6979,
      "field": 6980,
      "gri": 6981,
      "gments": 6982,
      "life": 6983,
      "moon": 6984,
      "oe": 6985,
      "top": 6986,
      "van": 6987,
      "water": 6988,
      "Ġtas": 6989,
      "Ġtiny": 6990,
      "Ġaid": 6991,
      "heast": 6992,
      "Ġsource": 6993,
      "rets": 6994,
      "Ġwound": 6995,
      "oned": 6996,
      "Ġcertificates": 6997,
      "Ġtoward": 6998,
      "itors": 6999,
      "Ġfuel": 7000,
      "Ġpant": 7001,
      "Ġpum": 7002,
      "Ġlas": 7003,
      "Ġlent": 7004,
      "Ġlying": 7005,
      "vember": 7006,
      "Ġgum": 7007,
      "Ġginger": 7008,
      "Ġnarrow": 7009,
      "oman": 7010,
      "omed": 7011,
      "ĠWish": 7012,
      "seven": 7013,
      "levant": 7014,
      "Ġreimb": 7015,
      "Ġrelevant": 7016,
      "oosing": 7017,
      "Ġelder": 7018,
      "alian": 7019,
      "ĠSize": 7020,
      "ĠSwe": 7021,
      "ĠSales": 7022,
      "ĠMor": 7023,
      "ĠMing": 7024,
      "robe": 7025,
      "ĠWendy": 7026,
      "ĠCE": 7027,
      "ĠCount": 7028,
      "ĠCup": 7029,
      "Ġseve": 7030,
      "acity": 7031,
      "adies": 7032,
      "adium": 7033,
      "advant": 7034,
      "ĠNan": 7035,
      "Ġsusp": 7036,
      "thy": 7037,
      "urred": 7038,
      "Ġexceed": 7039,
      "ĠLas": 7040,
      "ĠLater": 7041,
      "ĠLatin": 7042,
      "ĠLadies": 7043,
      "Ġprofic": 7044,
      "ĠNovember": 7045,
      "ĠEar": 7046,
      "ĠEric": 7047,
      "ĠPam": 7048,
      "Ġcoins": 7049,
      "Ġrang": 7050,
      "Ġrash": 7051,
      "ĠFlor": 7052,
      "ender": 7053,
      "ĠJill": 7054,
      "umber": 7055,
      "ares": 7056,
      "aret": 7057,
      "istance": 7058,
      "Ġnewly": 7059,
      "Ġ1000": 7060,
      "Ġvou": 7061,
      "Ġvase": 7062,
      "Ġchew": 7063,
      "Ġcheated": 7064,
      "Ġenroll": 7065,
      "Ġbush": 7066,
      "Ġherself": 7067,
      "Ġbull": 7068,
      "Ġapparently": 7069,
      "Ġprison": 7070,
      "Ġadministration": 7071,
      "Ġbrush": 7072,
      "Ġresol": 7073,
      "Ġbuyer": 7074,
      "ervation": 7075,
      "Ġunex": 7076,
      "Ġunique": 7077,
      "Ġuniverse": 7078,
      "urnished": 7079,
      "Ġaccur": 7080,
      "Ġdisadvant": 7081,
      "ĠUnder": 7082,
      "oster": 7083,
      "ĠPlay": 7084,
      "Ġputs": 7085,
      "Ġdrama": 7086,
      "Ġhousework": 7087,
      "ancies": 7088,
      "Ġswear": 7089,
      "Ġdrivers": 7090,
      "Ġserves": 7091,
      "ĠAnytime": 7092,
      "Ġairline": 7093,
      "Ġregion": 7094,
      "Ġregards": 7095,
      "Ġcouch": 7096,
      "Ġ600": 7097,
      "Ġimpact": 7098,
      "Ġrealtor": 7099,
      "Ġexpectations": 7100,
      "Ġpositions": 7101,
      "Ġsuites": 7102,
      "Ġcashier": 7103,
      "Ġdresses": 7104,
      "Ġwarmer": 7105,
      "Ġcurly": 7106,
      "Ġbillion": 7107,
      "Ġinternal": 7108,
      "Ġfastest": 7109,
      "Ġtours": 7110,
      "Ġwindy": 7111,
      "Ġappointments": 7112,
      "Ġreturned": 7113,
      "Ġpainful": 7114,
      "Ġquicker": 7115,
      "Ġleis": 7116,
      "Ġprogrammes": 7117,
      "Ġbuildings": 7118,
      "Ġsneak": 7119,
      "Ġsnacks": 7120,
      "Ġsidewalk": 7121,
      "Ġeditor": 7122,
      "Ġfloors": 7123,
      "Ġarrives": 7124,
      "ological": 7125,
      "Ġawake": 7126,
      "Ġprovided": 7127,
      "Ġpressed": 7128,
      "Ġfalls": 7129,
      "Ġdiscounts": 7130,
      "Ġdrops": 7131,
      "ĠSpain": 7132,
      "Ġsurprising": 7133,
      "Ġmedication": 7134,
      "Ġpublicity": 7135,
      "ĠClass": 7136,
      "Ġenvironmental": 7137,
      "ĠCheer": 7138,
      "Ġdreams": 7139,
      "Ġorganize": 7140,
      "Ġassistance": 7141,
      "Ġapproved": 7142,
      "Ġdeadlines": 7143,
      "iques": 7144,
      "Ġwebsites": 7145,
      "Ġprocessing": 7146,
      "Ġcomplaining": 7147,
      "hyd": 7148,
      "Ġhoneymoon": 7149,
      "ocable": 7150,
      "priate": 7151,
      "Ġshoot": 7152,
      "Ġestimate": 7153,
      "Ġconfirmed": 7154,
      "Ġfacilities": 7155,
      "Ġbandages": 7156,
      "Ġinstructor": 7157,
      "Ġmisunder": 7158,
      "Ġengineering": 7159,
      "Ġ::": 7160,
      "Ġtowel": 7161,
      "Ġtowels": 7162,
      "Ġbasement": 7163,
      "aughty": 7164,
      "Ġcooperate": 7165,
      "Ġexports": 7166,
      "ĠTravell": 7167,
      "Ġstamp": 7168,
      "ĠCalm": 7169,
      "Ġsandwiches": 7170,
      "Ġassignment": 7171,
      "Ġfeature": 7172,
      "holders": 7173,
      "Ġselected": 7174,
      "ĠMexican": 7175,
      "Ġladder": 7176,
      "Ġlocked": 7177,
      "Ġsmoothly": 7178,
      "Ġcups": 7179,
      "month": 7180,
      "Ġspirits": 7181,
      "Ġsteam": 7182,
      "Ġsteamed": 7183,
      "Ġanaly": 7184,
      "Ġworkshops": 7185,
      "Ġinquire": 7186,
      "Ġweaknesses": 7187,
      "Ġgrocery": 7188,
      "ĠRussian": 7189,
      "Ġliquor": 7190,
      "ĠMedium": 7191,
      "Ġcancelled": 7192,
      "Ġlungs": 7193,
      "Ġscarf": 7194,
      "ĠOpera": 7195,
      "Ġplaced": 7196,
      "Ġwardrobe": 7197,
      "Ġrecognize": 7198,
      "Ġcitiz": 7199,
      "Ġfrozen": 7200,
      "Ġrewarding": 7201,
      "Ġalternatives": 7202,
      "Ġtourniquet": 7203,
      "ĠInteresting": 7204,
      "Ġphotographs": 7205,
      "Ġreconfirm": 7206,
      "Ġdumplings": 7207,
      "ĠHolly": 7208,
      "Ġmathemat": 7209,
      "Ġcanceled": 7210,
      "Ġtoothache": 7211,
      "Ġpowder": 7212,
      "Ġventure": 7213,
      "05": 7214,
      "19": 7215,
      "Good": 7216,
      "ao": 7217,
      "but": 7218,
      "change": 7219,
      "egr": 7220,
      "fu": 7221,
      "gic": 7222,
      "garet": 7223,
      "lie": 7224,
      "meal": 7225,
      "minton": 7226,
      "net": 7227,
      "person": 7228,
      "presso": 7229,
      "rary": 7230,
      "teen": 7231,
      "uation": 7232,
      "vy": 7233,
      "vince": 7234,
      "xious": 7235,
      "zes": 7236,
      "Ġver": 7237,
      "Ġtank": 7238,
      "Ġsigning": 7239,
      "rep": 7240,
      "Ġwipe": 7241,
      "Ġya": 7242,
      "Ġmile": 7243,
      "Ġce": 7244,
      "Ġcuri": 7245,
      "Ġboo": 7246,
      "Ġbac": 7247,
      "Ġbail": 7248,
      "Ġbaking": 7249,
      "Ġbreeze": 7250,
      "Ġfu": 7251,
      "Ġdu": 7252,
      "Ġdough": 7253,
      "Ġdread": 7254,
      "ingers": 7255,
      "anking": 7256,
      "anley": 7257,
      "Ġped": 7258,
      "Ġlamp": 7259,
      "Ġgal": 7260,
      "Ġgraph": 7261,
      "Ġoint": 7262,
      "Ġnails": 7263,
      "Ġnurs": 7264,
      "Ġnaughty": 7265,
      "ĠTod": 7266,
      "ĠTitan": 7267,
      "stery": 7268,
      "stances": 7269,
      "atory": 7270,
      "keeping": 7271,
      "section": 7272,
      "Ġreun": 7273,
      "Ġhide": 7274,
      "Ġhills": 7275,
      "Ġeh": 7276,
      "ĠAy": 7277,
      "ĠAgain": 7278,
      "ĠAsia": 7279,
      "ĠSum": 7280,
      "ĠSeven": 7281,
      "rif": 7282,
      "alled": 7283,
      "ĠOuch": 7284,
      "chy": 7285,
      "ĠMP": 7286,
      "ĠMuse": 7287,
      "Ġmystery": 7288,
      "ĠIts": 7289,
      "ĠWei": 7290,
      "ĠYoung": 7291,
      "ĠCel": 7292,
      "ĠDEL": 7293,
      "ĠDinner": 7294,
      "ĠDalian": 7295,
      "tering": 7296,
      "ĠBer": 7297,
      "Ġjail": 7298,
      "Ġsoph": 7299,
      "ĠNorm": 7300,
      "ĠNah": 7301,
      "Ġsuffered": 7302,
      "cted": 7303,
      "Ġaspirin": 7304,
      "raight": 7305,
      "ĠLar": 7306,
      "ĠLife": 7307,
      "ĠGre": 7308,
      "Ġspect": 7309,
      "ĠEaster": 7310,
      "ĠEasy": 7311,
      "cknow": 7312,
      "ĠPart": 7313,
      "ĠFoods": 7314,
      "ieves": 7315,
      "ardess": 7316,
      "ĠJean": 7317,
      "Ġshoulders": 7318,
      "Ġlover": 7319,
      "Ġnewcom": 7320,
      "Ġintegr": 7321,
      "obe": 7322,
      "Ġvitamins": 7323,
      "Ġoverall": 7324,
      "Ġtwist": 7325,
      "Ġchoosing": 7326,
      "ĠVisa": 7327,
      "Ġbackpack": 7328,
      "ittee": 7329,
      "Ġlets": 7330,
      "Ġwond": 7331,
      "Ġbrick": 7332,
      "ĠThanksgiving": 7333,
      "Ġresident": 7334,
      "Ġflag": 7335,
      "Ġcarried": 7336,
      "ĠDonald": 7337,
      "Ġuns": 7338,
      "ization": 7339,
      "ĠInter": 7340,
      "Ġdisg": 7341,
      "ĠUK": 7342,
      "ĠUse": 7343,
      "ĠPleased": 7344,
      "Ġclassroom": 7345,
      "Ġfinals": 7346,
      "Ġ38": 7347,
      "Ġcontrary": 7348,
      "Ġbadminton": 7349,
      "Ġphones": 7350,
      "Ġgrind": 7351,
      "eason": 7352,
      "oons": 7353,
      "ĠState": 7354,
      "ĠStanley": 7355,
      "ĠStraight": 7356,
      "Ġ56": 7357,
      "ĠKim": 7358,
      "Ġoldest": 7359,
      "Ġshave": 7360,
      "Ġremo": 7361,
      "Ġbeaches": 7362,
      "Ġlearnt": 7363,
      "Ġpassing": 7364,
      "Ġpassword": 7365,
      "Ġswoll": 7366,
      "Ġsecure": 7367,
      "Ġdesire": 7368,
      "Ġimports": 7369,
      "atherine": 7370,
      "Ġmaturity": 7371,
      "Ġtermin": 7372,
      "Ġdiscour": 7373,
      "Ġdiscovered": 7374,
      "Ġspeaker": 7375,
      "Ġsignific": 7376,
      "Ġmuscles": 7377,
      "Ġretired": 7378,
      "Ġextent": 7379,
      "Ġextreme": 7380,
      "Ġwaterfall": 7381,
      "Ġbankrupt": 7382,
      "Ġadvise": 7383,
      "Ġadvanced": 7384,
      "Ġwalks": 7385,
      "Ġfounded": 7386,
      "Ġemployers": 7387,
      "ĠSmoking": 7388,
      "Ġtraveled": 7389,
      "Ġtravelers": 7390,
      "Ġfactories": 7391,
      "Ġcolorful": 7392,
      "Ġcrashed": 7393,
      "Ġcruise": 7394,
      "Ġrespond": 7395,
      "Ġsellers": 7396,
      "Ġsleepy": 7397,
      "Ġtasted": 7398,
      "Ġsixth": 7399,
      "Ġsymp": 7400,
      "Ġsymb": 7401,
      "Ġtesting": 7402,
      "Ġprim": 7403,
      "Ġposters": 7404,
      "Ġforeigner": 7405,
      "Ġpracticing": 7406,
      "Ġattendants": 7407,
      "clean": 7408,
      "Ġstuffed": 7409,
      "Ġeighty": 7410,
      "ĠGoing": 7411,
      "ĠTwice": 7412,
      "pected": 7413,
      "Ġequally": 7414,
      "ĠClaim": 7415,
      "Ġadvertised": 7416,
      "ĠWithout": 7417,
      "Ġbrands": 7418,
      "achel": 7419,
      "ĠChequ": 7420,
      "Ġdieting": 7421,
      "Ġorganized": 7422,
      "Ġhospitality": 7423,
      "Ġsolution": 7424,
      "ĠMargaret": 7425,
      "Ġopinions": 7426,
      "Ġearliest": 7427,
      "Ġgrape": 7428,
      "Ġcapacity": 7429,
      "ĠMichell": 7430,
      "Ġgasoline": 7431,
      "Ġcolored": 7432,
      "ĠCarol": 7433,
      "Ġclosing": 7434,
      "Ġproposed": 7435,
      "Ġfluently": 7436,
      "Ġportion": 7437,
      "Ġpowerful": 7438,
      "Ġchampions": 7439,
      "ĠEliz": 7440,
      "Ġmuseums": 7441,
      "Ġdecorate": 7442,
      "ĠGrandma": 7443,
      "Ġslept": 7444,
      "ĠPersonally": 7445,
      "Ġargument": 7446,
      "Ġpoison": 7447,
      "Ġcombined": 7448,
      "Ġappearance": 7449,
      "Ġpotato": 7450,
      "Ġmasc": 7451,
      "ĠPhil": 7452,
      "Ġindependently": 7453,
      "Ġtailor": 7454,
      "Ġlobster": 7455,
      "Ġreligion": 7456,
      "ĠRoberts": 7457,
      "ĠTermin": 7458,
      "Ġparticipate": 7459,
      "Ġcatalogue": 7460,
      "Ġessential": 7461,
      "Ġblanket": 7462,
      "Ġefficiently": 7463,
      "ĠRussia": 7464,
      "Ġprinciples": 7465,
      "Ġthirteen": 7466,
      "looking": 7467,
      "Ġexpanding": 7468,
      "Ġembarrassing": 7469,
      "Ġtrend": 7470,
      "Ġeventually": 7471,
      "Ġninety": 7472,
      "Ġadults": 7473,
      "Ġcontains": 7474,
      "Ġslightly": 7475,
      "Ġignore": 7476,
      "Ġyoga": 7477,
      "Ġinjured": 7478,
      "ĠDisney": 7479,
      "Ġrugby": 7480,
      "Ġpassionate": 7481,
      "Ġcomedy": 7482,
      "Ġnegative": 7483,
      "Ġbuttons": 7484,
      "Ġexecut": 7485,
      "Ġpublished": 7486,
      "revocable": 7487,
      "Ġcomplexion": 7488,
      "Ġtroubles": 7489,
      "Ġtextbooks": 7490,
      "ĠObama": 7491,
      "Ġenthusiastic": 7492,
      "Ġbrochure": 7493,
      "Ġocean": 7494,
      "ĠGermany": 7495,
      "ĠMusic": 7496,
      "ĠDiana": 7497,
      "Ġpamph": 7498,
      "Ġpregnant": 7499,
      "ĠHoliday": 7500,
      "Ġdozens": 7501,
      "ĠSeattle": 7502,
      "quisite": 7503,
      "Ġremembered": 7504,
      "ĠContinued": 7505,
      "ĠCEO": 7506,
      "ĠFlorida": 7507,
      "ĠTraveller": 7508,
      "Ġmathematics": 7509,
      "Ġointment": 7510,
      "ĠTodd": 7511,
      "ĠTitanic": 7512,
      "ĠMuseum": 7513,
      "cknowled": 7514,
      "Ġswollen": 7515,
      "Ġsymbol": 7516,
      "ĠMichelle": 7517,
      "26": 7518,
      "39": 7519,
      "77": 7520,
      "78": 7521,
      "98": 7522,
      "AM": 7523,
      "CC": 7524,
      "II": 7525,
      "KE": 7526,
      "OB": 7527,
      "RE": 7528,
      "St": 7529,
      "YZ": 7530,
      "aus": 7531,
      "aire": 7532,
      "bon": 7533,
      "dom": 7534,
      "fill": 7535,
      "gom": 7536,
      "gen": 7537,
      "gree": 7538,
      "gue": 7539,
      "ius": 7540,
      "iates": 7541,
      "mistry": 7542,
      "nam": 7543,
      "put": 7544,
      "sir": 7545,
      "tic": 7546,
      "uous": 7547,
      "ucc": 7548,
      "vest": 7549,
      "wear": 7550,
      "well": 7551,
      "Ġted": 7552,
      "oul": 7553,
      "heart": 7554,
      "Ġsour": 7555,
      "Ġseal": 7556,
      "Ġsomed": 7557,
      "real": 7558,
      "ĠIQ": 7559,
      "ĠIce": 7560,
      "Ġwis": 7561,
      "Ġwars": 7562,
      "Ġyen": 7563,
      "Ġmouse": 7564,
      "Ġmignon": 7565,
      "onese": 7566,
      "onents": 7567,
      "Ġcher": 7568,
      "Ġbiz": 7569,
      "itable": 7570,
      "Ġfingers": 7571,
      "Ġdiction": 7572,
      "Ġping": 7573,
      "Ġpra": 7574,
      "Ġpitch": 7575,
      "Ġlun": 7576,
      "Ġlag": 7577,
      "Ġlous": 7578,
      "Ġloun": 7579,
      "Ġobs": 7580,
      "Ġnerve": 7581,
      "ĠTour": 7582,
      "ĠTower": 7583,
      "Ġinfect": 7584,
      "Ġitiner": 7585,
      "ician": 7586,
      "semb": 7587,
      "ĠHill": 7588,
      "ĠHam": 7589,
      "ĠHealth": 7590,
      "Ġhomes": 7591,
      "Ġhel": 7592,
      "Ġmel": 7593,
      "Ġep": 7594,
      "rific": 7595,
      "Ġug": 7596,
      "imited": 7597,
      "asing": 7598,
      "ĠOops": 7599,
      "Ġstroke": 7600,
      "ĠMust": 7601,
      "ĠMother": 7602,
      "lyn": 7603,
      "Ġgosh": 7604,
      "ĠCV": 7605,
      "ĠCant": 7606,
      "ĠComm": 7607,
      "ĠCross": 7608,
      "Ġking": 7609,
      "Ġsem": 7610,
      "ĠDor": 7611,
      "ĠDuring": 7612,
      "usting": 7613,
      "ĠBig": 7614,
      "ĠBell": 7615,
      "ĠBroad": 7616,
      "Ġjack": 7617,
      "anted": 7618,
      "ĠNine": 7619,
      "Ġsuck": 7620,
      "cend": 7621,
      "Ġshift": 7622,
      "Ġshorter": 7623,
      "Ġexquisite": 7624,
      "Ġsomehow": 7625,
      "ĠLing": 7626,
      "ĠLab": 7627,
      "ĠLucky": 7628,
      "Ġoral": 7629,
      "ula": 7630,
      "romise": 7631,
      "Ġwhisk": 7632,
      "elry": 7633,
      "Ġspr": 7634,
      "Ġspacious": 7635,
      "ĠEgy": 7636,
      "ainted": 7637,
      "cket": 7638,
      "ĠPick": 7639,
      "ĠPizza": 7640,
      "Ġcompared": 7641,
      "ĠFriend": 7642,
      "ĠFoster": 7643,
      "ĠJord": 7644,
      "Ġuses": 7645,
      "Ġconcept": 7646,
      "unc": 7647,
      "Ġcleared": 7648,
      "Ġfellow": 7649,
      "ĠRet": 7650,
      "ellery": 7651,
      "Ġintroverted": 7652,
      "Ġvolleyball": 7653,
      "agging": 7654,
      "Ġoverhead": 7655,
      "ĠThrough": 7656,
      "Ġchill": 7657,
      "ĠVar": 7658,
      "Ġadvent": 7659,
      "Ġadapt": 7660,
      "ptoms": 7661,
      "Ġguard": 7662,
      "Ġ2000": 7663,
      "abeth": 7664,
      "Ġbrake": 7665,
      "Ġpartners": 7666,
      "Ġresource": 7667,
      "Ġflood": 7668,
      "arks": 7669,
      "Ġunn": 7670,
      "Ġbecomes": 7671,
      "Ġasks": 7672,
      "ĠInn": 7673,
      "Ġdiss": 7674,
      "ĠWhenever": 7675,
      "Ġscrat": 7676,
      "ointing": 7677,
      "Ġrecip": 7678,
      "Ġclassified": 7679,
      "Ġintersection": 7680,
      "angers": 7681,
      "Ġunderstood": 7682,
      "Ġdifferences": 7683,
      "ĠStay": 7684,
      "ĠStill": 7685,
      "Ġmale": 7686,
      "Ġ55": 7687,
      "ĠKitty": 7688,
      "Ġshared": 7689,
      "Ġremittance": 7690,
      "Ġsalty": 7691,
      "Ġlearner": 7692,
      "Ġrelatively": 7693,
      "Ġmaker": 7694,
      "Ġdeserved": 7695,
      "Ġimportance": 7696,
      "ograp": 7697,
      "Ġinvoking": 7698,
      "Ġraw": 7699,
      "Ġmatched": 7700,
      "Ġinsured": 7701,
      "Ġempha": 7702,
      "pson": 7703,
      "Ġboots": 7704,
      "Ġlists": 7705,
      "Ġcostumes": 7706,
      "Ġdeck": 7707,
      "Ġdehyd": 7708,
      "Ġfridge": 7709,
      "Ġbeautifully": 7710,
      "ĠBeck": 7711,
      "Ġchildhood": 7712,
      "Ġacqu": 7713,
      "grad": 7714,
      "Ġconserv": 7715,
      "Ġconsign": 7716,
      "ĠWhole": 7717,
      "Ġinterviewed": 7718,
      "Ġextend": 7719,
      "Ġsurround": 7720,
      "Ġbanker": 7721,
      "Ġcorn": 7722,
      "onsider": 7723,
      "Ġinstit": 7724,
      "Ġcooker": 7725,
      "Ġshorts": 7726,
      "Ġshorthand": 7727,
      "Ġvisitor": 7728,
      "Ġhealthier": 7729,
      "Ġvacancy": 7730,
      "Ġmedia": 7731,
      "proof": 7732,
      "Ġbegins": 7733,
      "Ġrefresh": 7734,
      "Ġreporter": 7735,
      "Ġconfusing": 7736,
      "Ġreported": 7737,
      "Ġespresso": 7738,
      "Ġtaxes": 7739,
      "Ġpurs": 7740,
      "Ġpurple": 7741,
      "ĠChristian": 7742,
      "rings": 7743,
      "Ġcooler": 7744,
      "ruit": 7745,
      "Ġattendance": 7746,
      "Ġproviding": 7747,
      "Ġconditioner": 7748,
      "inson": 7749,
      "Ġmagic": 7750,
      "minals": 7751,
      "Ġworthwhile": 7752,
      "ĠComput": 7753,
      "Ġhunt": 7754,
      "Ġelectrical": 7755,
      "Ġintroduction": 7756,
      "Ġpercentage": 7757,
      "ĠTrading": 7758,
      "Ġimproved": 7759,
      "Ġcoverage": 7760,
      "Ġgrandma": 7761,
      "ĠMostly": 7762,
      "Ġcompetent": 7763,
      "Ġ110": 7764,
      "Ġattracted": 7765,
      "Ġkiller": 7766,
      "Ġconnections": 7767,
      "Ġpurchasing": 7768,
      "Ġtaller": 7769,
      "Ġgrapes": 7770,
      "Ġaccidentally": 7771,
      "Ġ180": 7772,
      "Ġcelebration": 7773,
      "Ġdishonest": 7774,
      "Ġpolling": 7775,
      "Ġcolleague": 7776,
      "screen": 7777,
      "Ġwatches": 7778,
      "ĠDevelop": 7779,
      "Ġquarters": 7780,
      "Ġinvolves": 7781,
      "ĠArm": 7782,
      "ĠArt": 7783,
      "Ġsafely": 7784,
      "ĠAustralian": 7785,
      "Ġbuddy": 7786,
      "Ġbrakes": 7787,
      "Ġexhibits": 7788,
      "Ġexpression": 7789,
      "ĠXYZ": 7790,
      "Ġnegoti": 7791,
      "Ġwrapped": 7792,
      "ĠHuang": 7793,
      "ĠCanadian": 7794,
      "ĠAccounting": 7795,
      "Ġspoil": 7796,
      "Ġloads": 7797,
      "Ġadmission": 7798,
      "Ġbanan": 7799,
      "Ġchallenges": 7800,
      "Ġsurfing": 7801,
      "Ġconstantly": 7802,
      "Ġcandidates": 7803,
      "Ġtornad": 7804,
      "Ġchairs": 7805,
      "Ġcontribution": 7806,
      "Ġcontribute": 7807,
      "Ġcuis": 7808,
      "Ġoccasionally": 7809,
      "Ġstatus": 7810,
      "ĠFrancisco": 7811,
      "Ġcheques": 7812,
      "Ġknocked": 7813,
      "ĠRoman": 7814,
      "Ġcirculation": 7815,
      "Ġpilgri": 7816,
      "Ġinquiry": 7817,
      "Ġscientific": 7818,
      "ĠKorean": 7819,
      "Ġprinciple": 7820,
      "paid": 7821,
      "ĠBuilding": 7822,
      "Ġscratch": 7823,
      "ĠWilliams": 7824,
      "Ġoutdoors": 7825,
      "Ġnicer": 7826,
      "Ġcosmetics": 7827,
      "Ġharmful": 7828,
      "Ġembarrassed": 7829,
      "Ġmulti": 7830,
      "ĠCPR": 7831,
      "Ġcrackers": 7832,
      "Ġmechanical": 7833,
      "Ġpersu": 7834,
      "Ġinfo": 7835,
      "ĠOscar": 7836,
      "Ġsummers": 7837,
      "Ġshouting": 7838,
      "ĠMontgom": 7839,
      "Ġstewardess": 7840,
      "Ġporterhouse": 7841,
      "Ġrapid": 7842,
      "Ġfiancee": 7843,
      "Ġpronunc": 7844,
      "Ġtemporary": 7845,
      "Ġflew": 7846,
      "ĠOaks": 7847,
      "Ġwholesale": 7848,
      "Ġensure": 7849,
      "Ġbracelet": 7850,
      "Ġsymptoms": 7851,
      "Ġannounced": 7852,
      "Ġnutrition": 7853,
      "Ġfascinating": 7854,
      "ĠHonestly": 7855,
      "Ġankle": 7856,
      "Ġestablished": 7857,
      "Ġlifestyle": 7858,
      "Ġcircumstances": 7859,
      "Ġunexpected": 7860,
      "Ġsneakers": 7861,
      "ĠCheques": 7862,
      "ĠElizabeth": 7863,
      "Ġsomeday": 7864,
      "Ġlounge": 7865,
      "ĠCantonese": 7866,
      "ĠEgypt": 7867,
      "ĠJordan": 7868,
      "Ġdehydrated": 7869,
      "ĠMontgomery": 7870,
      "21": 7871,
      "76": 7872,
      "Al": 7873,
      "All": 7874,
      "Every": 7875,
      "Your": 7876,
      "au": 7877,
      "bu": 7878,
      "corn": 7879,
      "eem": 7880,
      "fly": 7881,
      "fish": 7882,
      "gle": 7883,
      "ka": 7884,
      "lict": 7885,
      "nity": 7886,
      "oh": 7887,
      "oot": 7888,
      "pong": 7889,
      "rot": 7890,
      "taking": 7891,
      "va": 7892,
      "virus": 7893,
      "wo": 7894,
      "wide": 7895,
      "week": 7896,
      "yram": 7897,
      "zed": 7898,
      "Ġast": 7899,
      "ouquet": 7900,
      "rehen": 7901,
      "ĠId": 7902,
      "ĠIKE": 7903,
      "Ġwave": 7904,
      "Ġcert": 7905,
      "Ġbot": 7906,
      "Ġbind": 7907,
      "Ġbone": 7908,
      "Ġbaker": 7909,
      "Ġbouquet": 7910,
      "Ġful": 7911,
      "Ġfres": 7912,
      "Ġfert": 7913,
      "Ġpatch": 7914,
      "Ġports": 7915,
      "Ġphar": 7916,
      "Ġparent": 7917,
      "Ġlin": 7918,
      "Ġloo": 7919,
      "Ġlap": 7920,
      "Ġlane": 7921,
      "Ġgig": 7922,
      "Ġnomin": 7923,
      "ĠWar": 7924,
      "ĠWars": 7925,
      "ĠWord": 7926,
      "ĠTon": 7927,
      "ĠTerry": 7928,
      "ĠTiger": 7929,
      "sticks": 7930,
      "atmeal": 7931,
      "otic": 7932,
      "icate": 7933,
      "icians": 7934,
      "Ġforced": 7935,
      "Ġrely": 7936,
      "Ġreject": 7937,
      "Ġdose": 7938,
      "Ġhom": 7939,
      "Ġmeg": 7940,
      "Ġyourselves": 7941,
      "outs": 7942,
      "ĠSal": 7943,
      "ĠShan": 7944,
      "ĠOld": 7945,
      "Ġstiff": 7946,
      "ĠMil": 7947,
      "ĠMoney": 7948,
      "ĠCustom": 7949,
      "ĠDone": 7950,
      "ĠDig": 7951,
      "Ġabilities": 7952,
      "ĠBal": 7953,
      "ĠBud": 7954,
      "Ġsocks": 7955,
      "ĠNat": 7956,
      "Ġsuited": 7957,
      "Ġshining": 7958,
      "opping": 7959,
      "ophy": 7960,
      "thony": 7961,
      "urities": 7962,
      "raham": 7963,
      "Ġcomments": 7964,
      "ushes": 7965,
      "ilty": 7966,
      "ulated": 7967,
      "ĠGarden": 7968,
      "Ġamend": 7969,
      "Ġspin": 7970,
      "Ġspoke": 7971,
      "Ġspray": 7972,
      "ĠEll": 7973,
      "ĠPan": 7974,
      "ĠPen": 7975,
      "ĠPort": 7976,
      "orthern": 7977,
      "Ġrot": 7978,
      "Ġrings": 7979,
      "ĠField": 7980,
      "ĠJac": 7981,
      "Ġconvey": 7982,
      "unter": 7983,
      "Ġclar": 7984,
      "Ġcliff": 7985,
      "ĠRon": 7986,
      "ĠRiver": 7987,
      "ĠRachel": 7988,
      "Ġquitting": 7989,
      "Ġquote": 7990,
      "hered": 7991,
      "resp": 7992,
      "Ġintense": 7993,
      "ĠAndrew": 7994,
      "olk": 7995,
      "olic": 7996,
      "Ġovercome": 7997,
      "Ġsheep": 7998,
      "venues": 7999
    },
    "merges": [
      [
        "Ġ",
        "t"
      ],
      [
        "Ġ",
        "."
      ],
      [
        "Ġ",
        "a"
      ],
      [
        "o",
        "u"
      ],
      [
        "h",
        "e"
      ],
      [
        "i",
        "n"
      ],
      [
        "Ġ",
        "s"
      ],
      [
        "r",
        "e"
      ],
      [
        "Ġ",
        "I"
      ],
      [
        "Ġ",
        "w"
      ],
      [
        "h",
        "a"
      ],
      [
        "Ġ",
        "y"
      ],
      [
        "Ġ",
        ","
      ],
      [
        "Ġy",
        "ou"
      ],
      [
        "Ġ",
        "m"
      ],
      [
        "Ġt",
        "he"
      ],
      [
        "o",
        "n"
      ],
      [
        "Ġ",
        "c"
      ],
      [
        "e",
        "r"
      ],
      [
        "Ġt",
        "o"
      ],
      [
        "Ġ",
        "b"
      ],
      [
        "Ġ",
        "?"
      ],
      [
        "l",
        "l"
      ],
      [
        "i",
        "t"
      ],
      [
        "o",
        "r"
      ],
      [
        "Ġ",
        "f"
      ],
      [
        "Ġ",
        "d"
      ],
      [
        "in",
        "g"
      ],
      [
        "i",
        "s"
      ],
      [
        "a",
        "n"
      ],
      [
        "Ġ",
        "p"
      ],
      [
        "e",
        "s"
      ],
      [
        "Ġ",
        "l"
      ],
      [
        "ha",
        "t"
      ],
      [
        "v",
        "e"
      ],
      [
        "Ġ",
        "g"
      ],
      [
        "n",
        "d"
      ],
      [
        "Ġ",
        "o"
      ],
      [
        "Ġ",
        "n"
      ],
      [
        "o",
        "m"
      ],
      [
        "Ġ",
        "W"
      ],
      [
        "e",
        "n"
      ],
      [
        "o",
        "w"
      ],
      [
        "Ġ",
        "ha"
      ],
      [
        "e",
        "a"
      ],
      [
        "e",
        "t"
      ],
      [
        "Ġ",
        "T"
      ],
      [
        "Ġ",
        "in"
      ],
      [
        "e",
        "d"
      ],
      [
        "a",
        "y"
      ],
      [
        "Ġ",
        "it"
      ],
      [
        "s",
        "t"
      ],
      [
        "a",
        "t"
      ],
      [
        "Ġt",
        "h"
      ],
      [
        "Ġo",
        "f"
      ],
      [
        "Ġ",
        "is"
      ],
      [
        "a",
        "r"
      ],
      [
        "Ġa",
        "nd"
      ],
      [
        "k",
        "e"
      ],
      [
        "â",
        "Ģ"
      ],
      [
        "Ġ",
        "âĢ"
      ],
      [
        "o",
        "t"
      ],
      [
        "Ġ",
        "Y"
      ],
      [
        "i",
        "c"
      ],
      [
        "ĠâĢ",
        "Ļ"
      ],
      [
        "s",
        "e"
      ],
      [
        "Ġf",
        "or"
      ],
      [
        "Ġb",
        "e"
      ],
      [
        "'",
        "s"
      ],
      [
        "l",
        "d"
      ],
      [
        "l",
        "e"
      ],
      [
        "Ġ",
        "re"
      ],
      [
        "o",
        "o"
      ],
      [
        "Ġ",
        "on"
      ],
      [
        "Ġha",
        "ve"
      ],
      [
        "Ġ",
        "H"
      ],
      [
        "Ġd",
        "o"
      ],
      [
        "Ġ",
        "h"
      ],
      [
        "u",
        "t"
      ],
      [
        "Ġ",
        "he"
      ],
      [
        "Ġt",
        "hat"
      ],
      [
        "g",
        "h"
      ],
      [
        "Ġw",
        "e"
      ],
      [
        "Ġm",
        "e"
      ],
      [
        "v",
        "er"
      ],
      [
        "i",
        "d"
      ],
      [
        "Ġ",
        "e"
      ],
      [
        "ou",
        "ld"
      ],
      [
        "Ġ",
        "A"
      ],
      [
        "Ġl",
        "i"
      ],
      [
        "Ġ",
        "!"
      ],
      [
        "Ġyou",
        "r"
      ],
      [
        "ou",
        "t"
      ],
      [
        "Ġa",
        "re"
      ],
      [
        "a",
        "l"
      ],
      [
        "gh",
        "t"
      ],
      [
        "Ġ",
        "S"
      ],
      [
        "r",
        "i"
      ],
      [
        "Ġ",
        "u"
      ],
      [
        "Ġc",
        "an"
      ],
      [
        "'",
        "t"
      ],
      [
        "i",
        "m"
      ],
      [
        "a",
        "s"
      ],
      [
        "a",
        "ll"
      ],
      [
        "i",
        "on"
      ],
      [
        "en",
        "t"
      ],
      [
        "i",
        "ll"
      ],
      [
        "Ġ",
        "O"
      ],
      [
        "c",
        "h"
      ],
      [
        "Ġs",
        "t"
      ],
      [
        "om",
        "e"
      ],
      [
        "Ġ",
        "M"
      ],
      [
        "l",
        "y"
      ],
      [
        "r",
        "o"
      ],
      [
        "i",
        "r"
      ],
      [
        "Ġa",
        "n"
      ],
      [
        "Ġm",
        "y"
      ],
      [
        "Ġn",
        "e"
      ],
      [
        "ĠI",
        "t"
      ],
      [
        "Ġg",
        "o"
      ],
      [
        "Ġli",
        "ke"
      ],
      [
        "it",
        "h"
      ],
      [
        "ĠW",
        "e"
      ],
      [
        "ĠY",
        "ou"
      ],
      [
        "Ġ",
        "C"
      ],
      [
        "Ġ",
        "k"
      ],
      [
        "ĠW",
        "hat"
      ],
      [
        "Ġs",
        "e"
      ],
      [
        "Ġ",
        "D"
      ],
      [
        "ha",
        "n"
      ],
      [
        "a",
        "c"
      ],
      [
        "Ġw",
        "ith"
      ],
      [
        "ĠT",
        "he"
      ],
      [
        "a",
        "d"
      ],
      [
        "oo",
        "d"
      ],
      [
        "t",
        "er"
      ],
      [
        "Ġth",
        "is"
      ],
      [
        "u",
        "st"
      ],
      [
        "Ġa",
        "b"
      ],
      [
        "Ġ",
        "B"
      ],
      [
        "Ġ",
        "j"
      ],
      [
        "in",
        "k"
      ],
      [
        "Ġp",
        "l"
      ],
      [
        "ou",
        "r"
      ],
      [
        "an",
        "t"
      ],
      [
        "Ġs",
        "o"
      ],
      [
        "Ġ",
        "N"
      ],
      [
        "ĠY",
        "es"
      ],
      [
        "a",
        "m"
      ],
      [
        "i",
        "f"
      ],
      [
        "ver",
        "y"
      ],
      [
        "Ġa",
        "t"
      ],
      [
        "a",
        "ke"
      ],
      [
        "Ġab",
        "out"
      ],
      [
        "Ġs",
        "u"
      ],
      [
        "all",
        "y"
      ],
      [
        "c",
        "e"
      ],
      [
        "Ġw",
        "ill"
      ],
      [
        "Ġth",
        "ink"
      ],
      [
        "he",
        "r"
      ],
      [
        "Ġd",
        "on"
      ],
      [
        "r",
        "y"
      ],
      [
        "Ġg",
        "et"
      ],
      [
        "c",
        "t"
      ],
      [
        "Ġk",
        "n"
      ],
      [
        "Ġn",
        "ot"
      ],
      [
        "Ġs",
        "h"
      ],
      [
        "'",
        "m"
      ],
      [
        "o",
        "p"
      ],
      [
        "Ġkn",
        "ow"
      ],
      [
        "Ġw",
        "or"
      ],
      [
        "t",
        "h"
      ],
      [
        "ĠT",
        "hat"
      ],
      [
        "oo",
        "k"
      ],
      [
        "o",
        "re"
      ],
      [
        "Ġb",
        "ut"
      ],
      [
        "u",
        "r"
      ],
      [
        "Ġse",
        "e"
      ],
      [
        "Ġw",
        "as"
      ],
      [
        "ĠH",
        "ow"
      ],
      [
        "ĠH",
        "e"
      ],
      [
        "ic",
        "e"
      ],
      [
        "b",
        "le"
      ],
      [
        "Ġa",
        "s"
      ],
      [
        "Ġthe",
        "re"
      ],
      [
        "han",
        "k"
      ],
      [
        "ea",
        "r"
      ],
      [
        "n",
        "t"
      ],
      [
        "Ġe",
        "x"
      ],
      [
        "g",
        "e"
      ],
      [
        "r",
        "a"
      ],
      [
        "Ġs",
        "ome"
      ],
      [
        "Ġc",
        "om"
      ],
      [
        "p",
        "p"
      ],
      [
        "ri",
        "ght"
      ],
      [
        "im",
        "e"
      ],
      [
        "Ġa",
        "ll"
      ],
      [
        "Ġ",
        "L"
      ],
      [
        "in",
        "d"
      ],
      [
        "Ġw",
        "hat"
      ],
      [
        "Ġw",
        "ant"
      ],
      [
        "'",
        "ll"
      ],
      [
        "u",
        "s"
      ],
      [
        "i",
        "ght"
      ],
      [
        "at",
        "ion"
      ],
      [
        "Ġan",
        "y"
      ],
      [
        "Ġa",
        "l"
      ],
      [
        "Ġg",
        "ood"
      ],
      [
        "Ġ",
        "or"
      ],
      [
        "Ġon",
        "e"
      ],
      [
        "Ġj",
        "ust"
      ],
      [
        "i",
        "l"
      ],
      [
        "Ġp",
        "ro"
      ],
      [
        "Ġ",
        "right"
      ],
      [
        "i",
        "ve"
      ],
      [
        "Ġw",
        "ould"
      ],
      [
        "Ġ",
        "very"
      ],
      [
        "u",
        "l"
      ],
      [
        "ar",
        "t"
      ],
      [
        "Ġt",
        "ime"
      ],
      [
        "ea",
        "se"
      ],
      [
        "Ġ",
        "G"
      ],
      [
        "ĠD",
        "o"
      ],
      [
        "ĠWe",
        "ll"
      ],
      [
        "es",
        "t"
      ],
      [
        "on",
        "e"
      ],
      [
        "ĠT",
        "hank"
      ],
      [
        "at",
        "e"
      ],
      [
        "r",
        "om"
      ],
      [
        "ĠN",
        "o"
      ],
      [
        "Ġwor",
        "k"
      ],
      [
        "Ġw",
        "h"
      ],
      [
        "Ġne",
        "ed"
      ],
      [
        "Ġ",
        "out"
      ],
      [
        "e",
        "l"
      ],
      [
        "es",
        "s"
      ],
      [
        "q",
        "u"
      ],
      [
        "Ġm",
        "u"
      ],
      [
        "Ġto",
        "o"
      ],
      [
        "u",
        "re"
      ],
      [
        "Ġre",
        "ally"
      ],
      [
        "Ġhe",
        "re"
      ],
      [
        "in",
        "e"
      ],
      [
        "on",
        "g"
      ],
      [
        "ĠO",
        "h"
      ],
      [
        "Ġa",
        "m"
      ],
      [
        "he",
        "n"
      ],
      [
        "Ġu",
        "p"
      ],
      [
        "Ġs",
        "p"
      ],
      [
        "Ġmu",
        "ch"
      ],
      [
        "Ġ",
        "E"
      ],
      [
        "a",
        "in"
      ],
      [
        "c",
        "k"
      ],
      [
        "a",
        "st"
      ],
      [
        "m",
        "ent"
      ],
      [
        "Ġ",
        "P"
      ],
      [
        "Ġgo",
        "ing"
      ],
      [
        "d",
        "ay"
      ],
      [
        "Ġd",
        "id"
      ],
      [
        "Ġl",
        "ook"
      ],
      [
        "ĠB",
        "ut"
      ],
      [
        "or",
        "t"
      ],
      [
        "Ġthe",
        "y"
      ],
      [
        "Ġ",
        "our"
      ],
      [
        "Ġ",
        "if"
      ],
      [
        "Ġt",
        "ake"
      ],
      [
        "er",
        "s"
      ],
      [
        "ac",
        "k"
      ],
      [
        "an",
        "y"
      ],
      [
        "Ġc",
        "o"
      ],
      [
        "i",
        "g"
      ],
      [
        "ou",
        "nd"
      ],
      [
        "e",
        "p"
      ],
      [
        "Ġ",
        "r"
      ],
      [
        "Ġf",
        "rom"
      ],
      [
        "Ġcom",
        "p"
      ],
      [
        "Ġ",
        "F"
      ],
      [
        "o",
        "s"
      ],
      [
        "e",
        "nd"
      ],
      [
        "i",
        "e"
      ],
      [
        "Ġpl",
        "ease"
      ],
      [
        "ar",
        "d"
      ],
      [
        "Ġ",
        "J"
      ],
      [
        "Ġu",
        "s"
      ],
      [
        "l",
        "p"
      ],
      [
        "Ġc",
        "on"
      ],
      [
        "u",
        "n"
      ],
      [
        "Ġc",
        "l"
      ],
      [
        "an",
        "d"
      ],
      [
        "Ġhe",
        "lp"
      ],
      [
        "Ġsh",
        "ould"
      ],
      [
        "ay",
        "s"
      ],
      [
        "Ġf",
        "e"
      ],
      [
        "n",
        "ing"
      ],
      [
        "Ġn",
        "ow"
      ],
      [
        "Ġa",
        "f"
      ],
      [
        "ĠW",
        "h"
      ],
      [
        "f",
        "e"
      ],
      [
        "Ġ",
        "R"
      ],
      [
        "Ġl",
        "o"
      ],
      [
        "re",
        "at"
      ],
      [
        "it",
        "e"
      ],
      [
        "e",
        "ll"
      ],
      [
        "Ġm",
        "o"
      ],
      [
        "u",
        "m"
      ],
      [
        "Ġ",
        "qu"
      ],
      [
        "h",
        "ing"
      ],
      [
        "Ġm",
        "ore"
      ],
      [
        "a",
        "re"
      ],
      [
        "Ġof",
        "f"
      ],
      [
        "am",
        "e"
      ],
      [
        "he",
        "re"
      ],
      [
        "'",
        "ve"
      ],
      [
        "is",
        "t"
      ],
      [
        "Ġthe",
        "m"
      ],
      [
        "t",
        "her"
      ],
      [
        "re",
        "s"
      ],
      [
        "ic",
        "k"
      ],
      [
        "Ġne",
        "w"
      ],
      [
        "Ġg",
        "ot"
      ],
      [
        "Ġin",
        "t"
      ],
      [
        "Ġbe",
        "en"
      ],
      [
        "th",
        "ing"
      ],
      [
        "'",
        "re"
      ],
      [
        "Ġh",
        "ow"
      ],
      [
        "Ġ",
        "1"
      ],
      [
        "it",
        "y"
      ],
      [
        "ĠA",
        "nd"
      ],
      [
        "o",
        "b"
      ],
      [
        "a",
        "k"
      ],
      [
        "e",
        "c"
      ],
      [
        "Ġ",
        "v"
      ],
      [
        "Ġ",
        "ro"
      ],
      [
        "re",
        "e"
      ],
      [
        "Ġm",
        "ake"
      ],
      [
        "Ġa",
        "g"
      ],
      [
        "ĠC",
        "an"
      ],
      [
        "ĠI",
        "s"
      ],
      [
        "Ġ",
        "ea"
      ],
      [
        "Ġn",
        "o"
      ],
      [
        "om",
        "et"
      ],
      [
        "o",
        "l"
      ],
      [
        "Ġc",
        "ould"
      ],
      [
        "Ġ.",
        "."
      ],
      [
        "i",
        "es"
      ],
      [
        "ou",
        "nt"
      ],
      [
        "e",
        "op"
      ],
      [
        "ĠO",
        "K"
      ],
      [
        "eop",
        "le"
      ],
      [
        "'",
        "d"
      ],
      [
        "a",
        "g"
      ],
      [
        "re",
        "d"
      ],
      [
        "Ġ..",
        "."
      ],
      [
        "as",
        "s"
      ],
      [
        "ou",
        "s"
      ],
      [
        "Ġb",
        "y"
      ],
      [
        "Ġo",
        "ver"
      ],
      [
        "u",
        "se"
      ],
      [
        "ĠT",
        "h"
      ],
      [
        "Ġw",
        "hen"
      ],
      [
        "p",
        "er"
      ],
      [
        "Ġc",
        "he"
      ],
      [
        "Ġha",
        "s"
      ],
      [
        "Ġt",
        "w"
      ],
      [
        "is",
        "h"
      ],
      [
        "Ġ",
        "en"
      ],
      [
        "Ġs",
        "he"
      ],
      [
        "r",
        "ow"
      ],
      [
        "Ġl",
        "ot"
      ],
      [
        "Ġp",
        "eople"
      ],
      [
        "Ġb",
        "us"
      ],
      [
        "Ġhe",
        "r"
      ],
      [
        "Ġb",
        "u"
      ],
      [
        "Ġt",
        "r"
      ],
      [
        "ac",
        "t"
      ],
      [
        "Ġwe",
        "e"
      ],
      [
        "Ġe",
        "very"
      ],
      [
        "Ġthe",
        "n"
      ],
      [
        "Ġc",
        "all"
      ],
      [
        "ĠL",
        "et"
      ],
      [
        "Ġsu",
        "re"
      ],
      [
        "Ġs",
        "a"
      ],
      [
        "Ġc",
        "h"
      ],
      [
        "Ġc",
        "ome"
      ],
      [
        "0",
        "0"
      ],
      [
        "Ġs",
        "omet"
      ],
      [
        "ou",
        "gh"
      ],
      [
        "Ġt",
        "ell"
      ],
      [
        "Ġa",
        "r"
      ],
      [
        "ir",
        "st"
      ],
      [
        "d",
        "er"
      ],
      [
        "or",
        "ry"
      ],
      [
        "Ġwe",
        "ll"
      ],
      [
        "Ġth",
        "ing"
      ],
      [
        "Ġb",
        "et"
      ],
      [
        "Ġha",
        "d"
      ],
      [
        "ve",
        "n"
      ],
      [
        "ĠS",
        "o"
      ],
      [
        "a",
        "ble"
      ],
      [
        "Ġ",
        "V"
      ],
      [
        "ĠG",
        "ood"
      ],
      [
        "Ġg",
        "reat"
      ],
      [
        "Ġy",
        "ear"
      ],
      [
        "ĠM",
        "ay"
      ],
      [
        "l",
        "f"
      ],
      [
        "e",
        "m"
      ],
      [
        "Ġaf",
        "ter"
      ],
      [
        "Ġd",
        "ay"
      ],
      [
        "a",
        "ge"
      ],
      [
        "Ġb",
        "ack"
      ],
      [
        "Ġl",
        "ong"
      ],
      [
        "Ġdo",
        "es"
      ],
      [
        "u",
        "d"
      ],
      [
        "ĠA",
        "re"
      ],
      [
        "v",
        "ing"
      ],
      [
        "x",
        "t"
      ],
      [
        "ea",
        "h"
      ],
      [
        "ĠM",
        "y"
      ],
      [
        "Ġw",
        "ay"
      ],
      [
        "ble",
        "m"
      ],
      [
        "ĠThe",
        "y"
      ],
      [
        "ĠWh",
        "y"
      ],
      [
        "Ġpro",
        "blem"
      ],
      [
        "b",
        "er"
      ],
      [
        "o",
        "y"
      ],
      [
        "Ġg",
        "ive"
      ],
      [
        "Ġp",
        "re"
      ],
      [
        "Ġh",
        "im"
      ],
      [
        "c",
        "c"
      ],
      [
        "Ġc",
        "our"
      ],
      [
        "it",
        "t"
      ],
      [
        "Ġo",
        "ther"
      ],
      [
        "Ġs",
        "ir"
      ],
      [
        "Ġl",
        "et"
      ],
      [
        "Ġj",
        "ob"
      ],
      [
        "ĠH",
        "a"
      ],
      [
        "Ġw",
        "on"
      ],
      [
        "ĠI",
        "f"
      ],
      [
        "e",
        "ct"
      ],
      [
        "id",
        "e"
      ],
      [
        "Ġa",
        "pp"
      ],
      [
        "Ġro",
        "om"
      ],
      [
        "ĠThe",
        "re"
      ],
      [
        "k",
        "ing"
      ],
      [
        "Ġto",
        "day"
      ],
      [
        "Ġp",
        "r"
      ],
      [
        "Ġf",
        "irst"
      ],
      [
        "ĠC",
        "h"
      ],
      [
        "Ġ",
        "ll"
      ],
      [
        "Ġtw",
        "o"
      ],
      [
        "Ġa",
        "d"
      ],
      [
        "ĠTh",
        "is"
      ],
      [
        "p",
        "t"
      ],
      [
        "Ġon",
        "ly"
      ],
      [
        "s",
        "o"
      ],
      [
        "u",
        "ally"
      ],
      [
        "p",
        "ort"
      ],
      [
        "ĠHe",
        "re"
      ],
      [
        "Ġsomet",
        "hing"
      ],
      [
        "Ġl",
        "ea"
      ],
      [
        "Ġg",
        "u"
      ],
      [
        "ĠM",
        "r"
      ],
      [
        "ar",
        "y"
      ],
      [
        "Ġs",
        "ay"
      ],
      [
        "Ġt",
        "ry"
      ],
      [
        "Ġm",
        "any"
      ],
      [
        "Ġk",
        "ind"
      ],
      [
        "Ġwee",
        "k"
      ],
      [
        "Ġ",
        "2"
      ],
      [
        "Ġp",
        "ay"
      ],
      [
        "b",
        "e"
      ],
      [
        "Ġ",
        "im"
      ],
      [
        "ĠY",
        "eah"
      ],
      [
        "Ġcour",
        "se"
      ],
      [
        "a",
        "b"
      ],
      [
        "t",
        "y"
      ],
      [
        "res",
        "s"
      ],
      [
        "Ġ",
        "'"
      ],
      [
        "ac",
        "e"
      ],
      [
        "an",
        "ce"
      ],
      [
        "ri",
        "end"
      ],
      [
        "ow",
        "n"
      ],
      [
        "ic",
        "h"
      ],
      [
        "or",
        "ning"
      ],
      [
        "ĠO",
        "k"
      ],
      [
        "one",
        "y"
      ],
      [
        "Ġfe",
        "el"
      ],
      [
        "Ġb",
        "r"
      ],
      [
        "Ġcomp",
        "any"
      ],
      [
        "o",
        "se"
      ],
      [
        "ĠThank",
        "s"
      ],
      [
        "e",
        "re"
      ],
      [
        "oo",
        "l"
      ],
      [
        "ot",
        "her"
      ],
      [
        "Ġp",
        "art"
      ],
      [
        "Ġf",
        "ind"
      ],
      [
        "ĠS",
        "ure"
      ],
      [
        "n",
        "g"
      ],
      [
        "Ġre",
        "s"
      ],
      [
        "u",
        "e"
      ],
      [
        "Ġf",
        "l"
      ],
      [
        "Ġl",
        "ast"
      ],
      [
        "Ġm",
        "orning"
      ],
      [
        "Ġbet",
        "ter"
      ],
      [
        "Ġs",
        "orry"
      ],
      [
        "an",
        "s"
      ],
      [
        "e",
        "f"
      ],
      [
        "Ġne",
        "xt"
      ],
      [
        "Ġp",
        "er"
      ],
      [
        "Ġany",
        "thing"
      ],
      [
        "Ġme",
        "et"
      ],
      [
        "er",
        "t"
      ],
      [
        "Ġc",
        "han"
      ],
      [
        "Ġdid",
        "n"
      ],
      [
        "Ġha",
        "pp"
      ],
      [
        "Ġal",
        "so"
      ],
      [
        "Ġbu",
        "y"
      ],
      [
        "a",
        "il"
      ],
      [
        "i",
        "al"
      ],
      [
        "Ġc",
        "ar"
      ],
      [
        "Ġwe",
        "re"
      ],
      [
        "Ġt",
        "ra"
      ],
      [
        "Ġex",
        "p"
      ],
      [
        "Ġlo",
        "ve"
      ],
      [
        "Ġ",
        "ke"
      ],
      [
        "ou",
        "ght"
      ],
      [
        "er",
        "v"
      ],
      [
        "at",
        "er"
      ],
      [
        "Ġche",
        "ck"
      ],
      [
        "ĠHa",
        "ve"
      ],
      [
        "ad",
        "y"
      ],
      [
        "ĠD",
        "on"
      ],
      [
        "Ġt",
        "han"
      ],
      [
        "ar",
        "k"
      ],
      [
        "Ġm",
        "ust"
      ],
      [
        "itt",
        "le"
      ],
      [
        "w",
        "ay"
      ],
      [
        "Ġ",
        "id"
      ],
      [
        "ig",
        "n"
      ],
      [
        "Ġl",
        "ittle"
      ],
      [
        "ĠW",
        "ould"
      ],
      [
        "Ġu",
        "n"
      ],
      [
        "f",
        "ore"
      ],
      [
        "Ġm",
        "an"
      ],
      [
        "or",
        "row"
      ],
      [
        "a",
        "use"
      ],
      [
        "Ġh",
        "is"
      ],
      [
        "w",
        "ays"
      ],
      [
        "t",
        "ing"
      ],
      [
        "Ġm",
        "ay"
      ],
      [
        "Ġbe",
        "fore"
      ],
      [
        "ound",
        "s"
      ],
      [
        "Ġm",
        "in"
      ],
      [
        "Ġm",
        "oney"
      ],
      [
        "Ġwh",
        "o"
      ],
      [
        "ere",
        "st"
      ],
      [
        "g",
        "et"
      ],
      [
        "Ġn",
        "ice"
      ],
      [
        "Ġbe",
        "c"
      ],
      [
        "Ġal",
        "ways"
      ],
      [
        "s",
        "i"
      ],
      [
        "Ġw",
        "r"
      ],
      [
        "ur",
        "n"
      ],
      [
        "Ġm",
        "on"
      ],
      [
        "ll",
        "o"
      ],
      [
        "is",
        "e"
      ],
      [
        "Ġs",
        "m"
      ],
      [
        "ĠS",
        "he"
      ],
      [
        "Ġu",
        "se"
      ],
      [
        "ĠCh",
        "in"
      ],
      [
        "d",
        "u"
      ],
      [
        "Ġf",
        "riend"
      ],
      [
        "Ġst",
        "art"
      ],
      [
        "Ġint",
        "erest"
      ],
      [
        "Ġd",
        "own"
      ],
      [
        "a",
        "it"
      ],
      [
        "or",
        "m"
      ],
      [
        "al",
        "k"
      ],
      [
        "Ġid",
        "ea"
      ],
      [
        "Ġd",
        "if"
      ],
      [
        "f",
        "ul"
      ],
      [
        "i",
        "p"
      ],
      [
        "Ġas",
        "k"
      ],
      [
        "ĠV",
        "e"
      ],
      [
        "Ġag",
        "ain"
      ],
      [
        "Ġy",
        "es"
      ],
[...]
